// Automatically generated header file
// Date: 2024-06-09 00:16:46.819387
// Quantized model exported from opt_Cosine_lr0.001_Aug_BitMnist_PerTensor_4bitsym_RMS_width64_64_64_bs128_epochs60.pth
// Generated by exportquant.py

#include <stdint.h>

#ifndef BITNETMCU_MODEL_H
#define BITNETMCU_MODEL_H

// Number of layers
#define NUM_LAYERS 4

// Maximum number of activations per layer
#define MAX_N_ACTIVATIONS 64

// Layer: L1
// QuantType: 4bitsym
#define L1_active
#define L1_bitperweight 4
#define L1_incoming_weights 256
#define L1_outgoing_weights 64
const uint32_t L1_weights[] = {
	0x08980089,0x80800818,0x8098aa88,0x98000011,0x89900001,0x08018200,0x88998812,0x00988010,
	0x89808880,0x88891980,0x08888980,0x99000000,0x80888880,0x8b888880,0x9a8919a0,0xa9898801,
	0x8aa99a81,0x19a9a811,0x98bdba81,0x10998280,0x00088bcb,0xa8110120,0x23444331,0x15765433,
	0x01467776,0x76342121,0x08013643,0x41880080,0x89bba9c8,0xab9aa808,0x808bceff,0xfedca089,
	0x01000881,0x22220000,0x10808ab0,0x80102181,0x12898001,0x98011900,0x80098009,0x08008800,
	0x80009091,0x10001080,0x1118a080,0x88099080,0x03023280,0x88b18810,0x157450a8,0x00901800,
	0x022aff94,0x89809200,0x89dff074,0xa0098888,0xabff8778,0xf1989881,0x9cfa275f,0xb1088181,
	0x8cd01229,0x9b800280,0x8ba80081,0x09808088,0x88a80028,0x09a88181,0x80891188,0x98800100,
	0xcbcbbbcb,0xb9bbaacc,0xcbacbaaa,0x888aabcb,0xcca90008,0x00888aab,0xaa911018,0x090890aa,
	0xa9808089,0x0889899a,0xa8190808,0x08889888,0xa1080808,0x8a908088,0xa9190a9a,0xb9031808,
	0xb9189811,0x10981800,0xaba89881,0x89000911,0xbb980801,0x89800141,0xb9999aaa,0xddb10242,
	0xa21089bc,0xa0375531,0x83535347,0x77755420,0x92467777,0x7765510b,0xa8223323,0x3333189b,
	0x33221012,0x33431121,0x11018801,0x11311202,0x219abedb,0xbc999990,0x89bfffff,0xdedccea0,
	0x0aaddfff,0xffdfecc8,0x288139ff,0xff08009a,0x23212476,0x5421189b,0x24300146,0x41881218,
	0x34108088,0x09900201,0x211119ab,0x80122210,0x11180089,0x98021101,0x10120101,0x10101080,
	0x18000a80,0x09980001,0x09888009,0x8818b000,0x1100099a,0x00998023,0x12322233,0x01323321,
	0x8999a898,0x889ba99a,0xa9890000,0x080a9999,0x99980198,0x01190998,0x98888088,0x0809a800,
	0xa0089808,0x81180101,0x89088108,0xa8080001,0x90993888,0x98100989,0x81980119,0x9a981089,
	0xa101810a,0x99902100,0x9130179f,0x99921109,0x9236770f,0xa8888088,0x9203570f,0xa8a08989,
	0x8421372b,0x89899999,0xa2244531,0xbba99aa9,0x88233520,0x9999a9ab,0xa9892332,0x20aabbb9,
	0x08888122,0x10aba998,0x990a8825,0x560acb98,0x98a99196,0x7760adc9,0x898188a9,0x27738bdb,
	0x099189bc,0x967739dc,0x89888980,0x0a07629b,0x890a088a,0x89b14509,0x8839a8ac,0xa889229b,
	0x88980988,0x081819ba,0x88000080,0x88998990,0x81098809,0x089a9a98,0x80088080,0x89889888,
	0x01120011,0x10808900,0x80120108,0x00190809,0x90110810,0x11120000,0x88120088,0x89010180,
	0x20232357,0x51990882,0x12234442,0x329cba80,0x22224222,0x43bbdc81,0x00131988,0x21aafc98,
	0x11319898,0x441afe90,0x1182220b,0x470dfc81,0x11102108,0x779de810,0x11101101,0x50ce0111,
	0x18998898,0x88a04220,0x18889209,0x01104201,0x01011001,0x01091000,0x8a9808a8,0x98989a80,
	0x08a98898,0x90aa9b99,0x89888009,0x989a89b8,0x10888888,0x90999980,0x01100880,0x88188012,
	0x8989b988,0x22200989,0x989cc901,0x21008090,0x89eea111,0x02088889,0xacfd2540,0x00089988,
	0xadca273a,0x09800800,0xabb9770f,0x8a888809,0x8a9177ff,0x02988001,0x9a9377fe,0x21988181,
	0x881143cc,0x18999809,0xa8112389,0x09a0aa08,0x81011208,0xa98a0a08,0x88800000,0x808a0888,
	0x98001001,0x88890021,0x08190180,0x01809221,0x08008001,0x80001200,0x00808801,0x00810010,
	0x01220888,0x01120021,0x80011099,0x80000111,0x0211108a,0x81091882,0x00000009,0x80109980,
	0x1089080a,0x08809ca0,0x08018008,0x810018b9,0x09088089,0xb0311088,0x88098898,0xbb223008,
	0x18089000,0xbd232080,0x08820801,0xfe663a88,0x1990018c,0xf0760a98,0x89a900ae,0xb7749a99,
	0x09b9abda,0x572809a9,0x08a9a082,0x44128a88,0x08880289,0x14218b98,0x01080a08,0x02318080,
	0xa8ababba,0xa988ba9a,0xa9bbcaa9,0x010019aa,0x9a999a88,0x91022088,0x8aa889aa,0x00211080,
	0xaa811189,0x9889080a,0xaa08189a,0xa098adaa,0x89009088,0x89909ba9,0x90090198,0x998a899a,
	0x8889aba8,0x8a021000,0x90889b01,0x89011288,0x98803777,0x32310008,0x00220777,0x63540001,
	0x889acbab,0x88100120,0x988bba91,0x13832108,0xa0121121,0x33121118,0x80022131,0x22221089,
	0x81011888,0x99a98108,0x08000108,0x0a990111,0x18100119,0x99810220,0x001999b9,0x83533341,
	0x10188982,0x53088898,0x00022000,0xbffffeda,0x11810009,0x888cdffd,0x088aaba0,0x322218ec,
	0x00110008,0x99920398,0x89038148,0xa9111310,0x09aaa91a,0x83103022,0x228bcbc8,0x33210011,
	0x33532146,0x52820a00,0x25765562,0x09aaab08,0x02202388,0x898bab81,0x0029bbdd,0xba9a9808,
	0x01800008,0x32210881,0x1818088a,0x14529990,0x00998a9b,0xa563beb9,0x0099809e,0xc662cfe8,
	0x0081000d,0xe772dfd8,0x1912981b,0xc758ffa8,0x0009011b,0x971afb10,0x2222008a,0x239c8110,
	0x81808908,0x28800228,0x10998808,0x09909821,0x01800099,0x88011200,0x01880808,0x00100021,
	0x21100080,0x88889981,0x10009091,0x00001811,0x80080280,0x98108888,0x00008000,0x09011010,
	0x98a9a989,0x98a880a9,0x999888aa,0x90888998,0x98a98999,0xb8a99080,0x89a98908,0x980a8188,
	0x888aaa90,0x88100021,0x989aa888,0xab818008,0x9008118d,0xfa310218,0x992029de,0x23543231,
	0x9909acf0,0x77401200,0x99baaa17,0x72112000,0x9aa00924,0x20110018,0x081809cb,0x10100200,
	0x02112090,0x00191308,0x81101199,0x01112188,0x90121098,0x898899a9,0x80802200,0x18000998,
	0xa9999898,0x008090a9,0x99a98801,0x12108989,0xa8881000,0x22220089,0x99922831,0x12208888,
	0x99901218,0x2190a820,0x80108227,0x40012110,0x8111257b,0xeb99a811,0x803455ff,0xa9aeb822,
	0x82434dfe,0x39a98011,0x01210ffa,0x2a88b989,0x01232be8,0x8a919a99,0x0803323a,0xaa99819b,
	0x88018909,0x080a18aa,0x889888a9,0x09899aaa,0x99890809,0x9b889aa8,0x89999999,0x8ab0a988,
	0x08188800,0x88881010,0x88110088,0x80880108,0x10120819,0x88008000,0x20022801,0x91018800,
	0x00808800,0x11088001,0x02010808,0x89900908,0x80212210,0x80101990,0x11244341,0x22224081,
	0x9a882664,0x33281211,0x8cffffdc,0xdb081018,0x8cffffff,0xcaba80a8,0x089a9914,0x39aa99a8,
	0x08333420,0xa99a0880,0x01011128,0x81088808,0x80801008,0x09890800,0x00818800,0x09899800,
	0xa8aa9801,0x00108008,0x99a98110,0x01241089,0xa8880810,0x14234310,0x99012131,0x13122330,
	0xa0134418,0x02221120,0x81244538,0x88082318,0x92421110,0x823009cc,0x91290003,0x288cfffd,
	0x98901144,0x1aefffec,0x9a898800,0x8cbbaabc,0xababddfa,0x8015180a,0xaccbbabb,0x81156408,
	0xaaa9999a,0x99233218,0x9a998989,0x08811288,0xa9889889,0x9880089a,0xa89a9089,0x0888898a,
	0x00998999,0x99a99889,0x888a98a8,0x99800a99,0x089a8998,0x88089809,0x89a09899,0x9a11908a,
	0x9aa88988,0x8a932438,0x999089aa,0x0ec41138,0x0911a1b1,0x8ff64448,0x012800a3,0xef064518,
	0x89890189,0xdb774208,0x998980ad,0xa6742099,0x99b89aa8,0x34280988,0x09800019,0x01800810,
	0x08108018,0x01000030,0x80003001,0x80080210,0x90132213,0x88101108,0x08920081,0x01180108,
	0x08080255,0x40990101,0x10899277,0x1eea2001,0x888ba477,0xcfe03308,0x109bd477,0xff840001,
	0x19a9d275,0xfd410888,0x0889d975,0xf0290908,0x18089b43,0xb00a8811,0x80080902,0x80889083,
	0x08889002,0x08001111,0x80a90000,0x18022311,0x08211010,0x00102021,0x90812888,0x08aaaa99,
	0x88809a98,0x90989aa9,0x08819888,0xa099aa90,0x80099898,0x99890188,0x00008998,0x80101081,
	0x88a99998,0x89888809,0x8a998988,0x00800098,0x908baa09,0x81881008,0x918a9a88,0xa8990108,
	0x919899a9,0x90988890,0x8088c881,0x13088999,0x82899a9a,0xaab9aaca,0x02210aff,0xffd98088,
	0x13633642,0x01111110,0x02251777,0x77321088,0x0989ca03,0x21022121,0x88889aab,0x98101310,
	0x99803212,0x88081131,0x8a898808,0x20000820,0x99910099,0x88001108,0x00800011,0x11121088,
	0x99891809,0x00808000,0x00000321,0x10000800,0x89011201,0x11800800,0x801990a0,0x99801010,
	0x82420adc,0xa9888898,0x11554343,0x431888ba,0x81455777,0x60208088,0x8aa89bee,0xca080018,
	0xacefffff,0xc8980000,0xbefdb013,0x08801119,0x8b013110,0x28888101,0x08008998,0x00808010,
	0x00988189,0x090a9080,0x80010912,0x09018089,0x08110908,0x00100098,0x98801010,0x088999a8,
	0x90888180,0x01220008,0x08818800,0x80000988,0x81108801,0x12218988,0x01208128,0x00909899,
	0x81889118,0x80890019,0x01119128,0x32332011,0x0110a212,0x22344443,0x88288211,0x9bb00120,
	0x88113111,0x8a989ab8,0x88aa0132,0x08aa9cda,0x888bfcb9,0x089acdb9,0x821abbca,0x0899eda8,
	0x01020990,0x108bed99,0x08120201,0x19bffb80,0x08900011,0x9aeed998,0x00910811,0x89cda990,
	0x10188088,0x10101211,0x11088881,0x21091008,0x12008288,0x89011081,0x10088009,0x12809000,
	0x1100800a,0x819999a9,0x08289809,0x10a89899,0x2019a92b,0x008a9088,0x0810198c,0x92882210,
	0x8880800d,0x05113218,0x898088af,0x17110000,0x999080ff,0x76100118,0x88a099fe,0x77211110,
	0x89000bf9,0x64400310,0x100a9df9,0x23310381,0x080adedd,0x81210800,0x0889aa99,0x22218001,
	0x22100110,0x81022220,0x20220100,0xa1289810,0x01200908,0x92188801,0x11111089,0x884808b9,
	0x22009109,0x912890a9,0x08108890,0xb071aa99,0x08899a18,0xf973b9a8,0x109b8829,0xf171baa8,
	0x10888838,0xf449c888,0x0800002d,0xa6290001,0x8a0821bb,0x25080011,0x00800d92,0x28820111,
	0x809bba23,0x89810211,0x8add8310,0x89991901,0x08aa1803,0x18ab9800,0x21903302,0x88989820,
	0x22213333,0x44210121,0x11234300,0x03408000,0x111880ac,0x812ab011,0x8888049e,0x23199a80,
	0x08aaa40e,0x449a9000,0x0a9cc20f,0x32988010,0x1080b129,0x08111333,0x02341352,0xb8134633,
	0x23565402,0x01803541,0x13203893,0x41135212,0x8899a991,0x12888ca9,0x89bcbfff,0xfdccccc9,
	0x8abdefed,0xdecbaab9,0x08aaaead,0xab9a8899,0x1899acac,0x9bcda000,0x01188a9b,0xaabb8101,
	0x89888908,0x99998988,0x90900180,0x80100898,0x00999808,0x0a908000,0x9888aa08,0x88898888,
	0xa9a00a08,0x00891819,0x8a91108a,0x9a890880,0x9ba899aa,0x99888218,0xaccca999,0x9aca08aa,
	0x8808108a,0x99cddeea,0x01221009,0x0abcbba0,0x11112202,0x45677761,0x18180100,0x27777775,
	0x8801989a,0xb9356773,0x88808929,0xaefb9011,0x8a888110,0x18dddc98,0x88998008,0x080ab998,
	0x22000008,0x01002220,0x21129098,0x88a99000,0x10128880,0x80800b80,0x01133210,0x98a80a98,
	0x82324542,0x80a18380,0x10234445,0x54220110,0x9cbdefff,0xb9988800,0xbffffffa,0x09898901,
	0x9eff9143,0x21100012,0x8b834411,0x81313103,0x23441008,0x08019111,0x22421801,0x89b98000,
	0x22019881,0x889aaa98,0x089880a9,0x81ba9b90,0x100a8889,0x08899800,0x010a0199,0x99280181,
	0x9aa8088b,0xba9a89a9,0xa9114411,0x11080989,0xa8367776,0x43102208,0xa9246577,0x55442241,
	0x9a8aaba0,0x44410032,0xbcdeffff,0xffbb9901,0xacccaabb,0xc9989908,0x89002113,0x18908089,
	0x02332188,0x11890000,0x91188000,0x00980000,0xa8880089,0x99800808,0x89908a88,0x0899a888,
	0x98880109,0x08889098,0xb9889899,0x0a831899,0x9a9a0001,0x1900089a,0x9ab99010,0x808898bb,
	0x999a0808,0x88889899,0x80aa8888,0x1189a9a9,0x99999109,0x02119a98,0x88898800,0x13119990,
	0x8998000a,0x89a88a88,0x89c9a88a,0xab808aca,0x0ab1aa28,0x09808ccb,0x98909100,0x30988aca,
	0x01002109,0x00010088,0x345332bb,0xa0343241,0x26763322,0x00243242,0x14432833,0x08234442,
	0x80010b80,0x22334321,0x89000099,0x21032188,0x99989ccb,0xddca9088,0x880acdde,0xffdba909,
	0x88088891,0x09880888,0x80000881,0x88919808,0x08010890,0x00189888,0x00008081,0x88000990,
	0x11080880,0x00190981,0x88880800,0x80808011,0x00818819,0x90200101,0x80800088,0x88008001,
	0x81282088,0x89029088,0x0819aa81,0xaa108980,0x88add072,0xda308a89,0x9cb9157a,0xfd521b90,
	0xa901455f,0xff642898,0x8224428f,0xff347109,0x003556af,0xff244318,0x801231bf,0xff923001,
	0x09800323,0x47432098,0x99982110,0x82574199,0xa9a88809,0xa157710a,0xab912181,0x93436529,
	0xabfd9def,0xea543028,0x9effffff,0xfe221888,0xaa9c8890,0x801119a8,0x04343088,0x82100988,
	0x26532389,0x90909801,0x2431020b,0xa9980121,0x02112089,0x90090010,0x90898108,0x01011181,
	0x880a8099,0x00001180,0x8000a018,0x88922889,0x999aabbb,0x98111988,0x9899b999,0x98809880,
	0x00180189,0xa8089091,0x200118aa,0x01108980,0x118002a9,0x00118a89,0x108a109a,0x01189889,
	0x0098118a,0x8188189b,0x80a99990,0x9cb02880,0x00bab902,0x0fd40001,0x0088a805,0x2fe58881,
	0x80188817,0xaf051080,0x20099045,0xff52b112,0x8809d920,0xf0410110,0x100bca81,0x08801120,
	0x119baa02,0x10098800,0x008aab80,0x91089012,0x18000911,0x828a9021,0x81281109,0x80808210,
	0x9a8a9aba,0xa9088090,0x0888aace,0xdba80989,0x08121bff,0xeb9a1090,0x014732ff,0xfa901898,
	0x0345541f,0xfab99110,0x0811052f,0xfd902288,0x9809065f,0xfe90aa89,0x98802779,0xb888a980,
	0x0212341c,0xb1801111,0x023322be,0x89908001,0x002889b0,0x008a1008,0x9a8bdc98,0x10201018,
	0x9abba888,0x80111080,0x88002282,0x18811198,0x88023008,0x81991090,0x88822110,0x00010888,
	0xaa99ab99,0xa9880989,0xaa989888,0x8a008809,0xaa080080,0x88808901,0x98120009,0x88111811,
	0xa9108181,0x00008088,0x9a809108,0x09221108,0xa9088889,0xaa943300,0x9912199a,0xb9934542,
	0xa9189009,0x9ff25552,0x89089289,0x0ff07542,0x99998880,0x0ff67643,0x98988888,0x9f076741,
	0xa908b00a,0xab457541,0xa9a99c9a,0x82335321,0xaa998898,0x01891188,0x9ba90990,0x80899ba9,
	0x88889008,0x32120909,0x890189a9,0x00463308,0x8008b9a9,0x98156420,0x008a998a,0x0aa37641,
	0x08890000,0x09916761,0x89113210,0x8afd3774,0x98110800,0x9dee1533,0x98809811,0x99bb0411,
	0x0a8a9108,0x0b892320,0x0aa08810,0x8a910110,0x99808000,0xa9aa8090,0x89901988,0x00b98089,
	0x88889811,0x81098289,0x89888080,0x98998100,0x89001119,0xa9aa8980,0x8809988b,0xa9998090,
	0x8a088800,0x08088888,0x8a011332,0x81008100,0xa8823413,0x23322310,0x9a802433,0x22210328,
	0x9a902421,0x99898181,0x9a810328,0x89208889,0xbcba8233,0x90088198,0x9efff923,0xaa98988a,
	0xabfffffb,0x9aa9a88a,0x988bffea,0x8aaa99aa,0x82345452,0x8a99999a,0x13223201,0x80b98089,
	0x02311210,0x11288018,0x00341981,0x98102118,0x8a811019,0x90111009,0x89808819,0x98aa8999,
	0x81010088,0x80018212,0x08818000,0x01100801,0x01088089,0x98100011,0x10108018,0x88181880,
	0x80100109,0x88001888,0x00180009,0x00801091,0x0008000a,0x09980889,0x0011001a,0x299a0811,
	0x8811219b,0x48888112,0x01320cd5,0x58801311,0x1820af87,0x5d808010,0x08beff67,0x2dbaaa91,
	0x0accc847,0x10a9ba08,0x89ca9235,0x41890090,0x1aaa9043,0x42189010,0x108a8011,0x31280101,
	0x111100aa,0x90212321,0x2210aaff,0xfb800120,0x20000abf,0xffd82120,0x3110189e,0xfffa1902,
	0x12123122,0xffff8a81,0x12321357,0x2fffca80,0x33212084,0x51beab98,0x2320aab1,0x331b9990,
	0x08899802,0x1008a998,0x18990091,0x01918101,0x208800a9,0x12088801,0x20801109,0x80981001,
	0x31809808,0x80113101,0x13889109,0x00100881,0x33010029,0x90080802,0x11200800,0x0a881811,
	0x8999aa8a,0x99aa9898,0xa9980089,0x88000008,0xaba88101,0xa9990018,0x89820081,0x0aa91211,
	0x99110880,0x9c9a1910,0xa0909081,0x08808010,0x88aaba91,0x10112533,0x919ab800,0xa9102432,
	0x98255749,0xc98a8011,0x98837771,0xd98b8188,0xaac91262,0x80980298,0x989bba11,0x2013188a,
	0x01811342,0x210088aa,0x91121320,0x20098999,0x99090181,0x1089bbba,0x99999999,0xa98ab9aa,
	0x80012231,0x089a9181,0x01222330,0x19ab9980,0x10133222,0x008bdb90,0x01532122,0x10aefca8,
	0x33218912,0x48fffc98,0x12111015,0x7ffffaa8,0x21208025,0x1ffe0880,0x11108115,0x0ff01020,
	0x80020823,0x9dc21008,0x08010128,0x9c018818,0x08808098,0x9c180881,0x08989981,0x89080091,
	0x09000881,0x08b99888,0x80008880,0x8a889908,0x10890a80,0x9aaa9901,0x00900010,0x10808900,
	0x80100212,0x21101088,0x81002118,0x09808880,0x00001800,0x98888888,0x08088081,0x80000898,
	0x80088089,0x88888888,0x90008801,0x80008880,0x01801220,0x08800800,0x01008099,0x80808998,
	0x1228aaa0,0x01089008,0x02322343,0x21110108,0x98045664,0x00818108,0x8befffff,0xfb988908,
	0x8affffff,0x00088008,0x98bcb923,0x28898801,0x01125631,0x80089908,0x80133210,0x2808a888,
	0x01321122,0x11010100,0x22281909,0xaa88a002,0x211110ac,0x89dab021,0x11081889,0x9ab01200,
	0x18881180,0xbc222000,0x1008210b,0xe2554119,0x092819ff,0x0655228a,0x8989dff8,0x738a8088,
	0x099ab104,0x60a91988,0x10008cb0,0x09810999,0x13289acb,0x00350999,0x00213208,0x011219a9,
	0x00080911,0x88921c91,0x11109910,0x1990ba80,0x10099228,0xaacca900,0x21018808,0xaa900122,
	0x80899010,0x09899a99,0x99880180,0x32a01898,0x88899010,0x34308990,0x0aabaa98,0x02091888,
	0x99aab98a,0x91180100,0x989bb088,0xaa018003,0x99988088,0xa981a155,0x8abdc924,0x29919665,
	0x09cedb27,0x18253644,0x1219bfd2,0x32250822,0x134329dc,0x8018a991,0x1111108a,0x8988ca99,
	0x99888931,0x9aa8c988,0x99980018,0x89a9a98a,0x8a808010,0x13099990,0x99908899,0x99088898,
	0xba988998,0x189a9baa,0xaa911200,0x00a8abab,0xa8165819,0x99089bab,0x91574991,0x8819cbbc,
	0x93775cb1,0x8a888bb9,0x06775fe1,0x1a080099,0x24773ff0,0x189989bb,0x34774fd0,0x009089bb,
	0x14443aca,0xa898088b,0x151119a9,0x889a82aa,0x04022008,0x0a80989b,0x03111088,0x00a9809a,
	0x80211801,0x8908828a,0x91010812,0x09803009,0xbb802010,0x010080ab,0xcba8089b,0x8090a9ab,
	0x80810012,0x33211880,0x10813343,0x43323009,0x01133211,0x220aa111,0x014321ab,0xbb809998,
	0x825328ab,0xbb91ac00,0x13332218,0x01010000,0x12222449,0x0aa08218,0x10220341,0x89818221,
	0x09028022,0x13432233,0x88989ab1,0x00903244,0x09099819,0xba981323,0x989ac922,0x88011810,
	0x908bca10,0x14220aba,0x0a8bceb1,0x09abeddb,0x99acefff,0xffffdba9,0x0099bdff,0xffecb9a0,
	0x80810000,0x00909800,0x00810990,0x01128008,0x10180088,0x8109aa88,0x02180008,0x08018111,
	0x00091232,0x25776674,0x08080080,0x00982141,0x08098901,0xcfffffc9,0x8889a031,0x8cdfffec,
	0x08008189,0x90539dca,0x0088019a,0x922229a8,0x19a91890,0x81222080,0x88b98022,0x8a000120,
	0x08808181,0x00008811,0x89218080,0x9098aa11,0x00198003,0x98808900,0x81001110,0x80998000,
	0x80023429,0xcda11008,0x1013560f,0xff234201,0x802674ff,0xf0742100,0x991672ff,0xc43089a8,
	0x89a374ff,0x1608adca,0x0aa867fc,0x32baa800,0x09c9179a,0x28b00000,0x9aaa8181,0x18002131,
	0x89988088,0x08010028,0x10090880,0xa0801080,0x81281100,0x00880908,0x89018088,0x09188808,
	0x89890080,0x10880800,0x99998888,0x80990800,0x80980880,0x80288201,0x00800808,0x08889811,
	0x21108aca,0x24318881,0x0121aef1,0x7729a981,0x0110bff3,0x75adeb01,0x0132bff6,0x73deb082,
	0x11338ff7,0x7ad09132,0x01025cf6,0x7eb10323,0x119108c2,0x3b900110,0x00988081,0x18200098,
	0x10888090,0x01888a90,0x00000888,0x00811101,0x18180891,0x10810198,0x80188880,0x00889809,
	0x08199880,0x01008899,0x8012201a,0x89000881,0x81888819,0x88900881,0x80988881,0x01888818,
	0x00080122,0x33113220,0x02010811,0x31233100,0x81101222,0x33664898,0x01118112,0x33afffcb,
	0x1022199b,0x8ffffffd,0x10000189,0xaeffeffd,0x11200101,0x81242288,0x18081810,0x34565644,
	0x88989988,0x01212244,0x089a9988,0x0909a922,0x09088818,0x00099880,0x18881230,0x88a89ba9,
	0x18898299,0x9b90bbb9,0x8899a210,0x09aabc88,0x00018b88,0x89098008,0x81080998,0x88888020,
	0x02210800,0x09888822,0x22098bab,0xaccc9000,0x109abeff,0xfffeba98,0x21accfff,0xffeecea9,
	0x198989c8,0x90108108,0x198a0267,0x77521210,0x88a88112,0x38020143,0x0891288a,0x99808111,
	0x08000008,0x00812222,0x20000188,0xa9980118,0x02088888,0x88000801,0x10180881,0x09888002,
	0x12200088,0x90010012,0x11012010,0x80991202,0x21211900,0x88998131,0x22222202,0x22201322,
	0x21221212,0x09810221,0x0202018a,0x9a822000,0x88088988,0x0a814308,0x00080001,0x0da23089,
	0x11001189,0x0b0671b9,0x20122881,0x2e375ac8,0x22002101,0xab771aca,0x10913209,0x9151acb9,
	0x080629ea,0x1019a891,0x18118cb1,0x30823038,0x00210803,0x08226410,0x81400009,0xabc91090,
	0x1239829a,0x99cabba8,0x01801989,0x10abbdb8,0x01338a9a,0x1209cba0,0x280008aa,0x98189800,
	0x01110099,0x80081008,0x1108abb9,0x98000888,0x10100888,0x02180088,0x10131223,0x10081888,
	0x00436628,0x989029b8,0x001a8fff,0x81101b98,0x08cfff85,0x5318b9aa,0x99047775,0x8aaaa99a,
	0x0025530a,0xb9999801,0x89adeffc,0x98881018,0x00aa9981,0x11802981,0x10200322,0x09881100,
	0x181288a0,0x88109001,0x10888089,0x80999811,0x18800000,0x02880918,0x10808001,0x02021818,
	0x9889898a,0xbba8889a,0x9a88989b,0xaa9b9999,0xa0089b90,0x8999ba80,0x9800809b,0xb980c989,
	0x90289aba,0x98918089,0x880a08aa,0xdcc80189,0x98803209,0xffcc9098,0x80101347,0x5218a988,
	0x02180947,0x64218001,0x02330822,0x31290100,0x02345209,0x14213818,0x8012332a,0x11102119,
	0x809a8a08,0x8881888a,0x98a98808,0x00129aa8,0x89991112,0x142010a8,0xa9888081,0x131009a8,
	0x99989981,0x112110a8,0xa8a98022,0x33333089,0x89918213,0x22332120,0x98980103,0x13211908,
	0xaa002222,0x01210988,0x8a234101,0x38108098,0x99088ac8,0x33430189,0xba8baca2,0x6545098a,
	0x9a023813,0x420abbb9,0x98037630,0x9cccb019,0xaa0818cd,0xffba9221,0x8b09acd9,0xaba90110,
	0x98008980,0xa8998018,0x80080998,0xa8998889,0xa9808808,0xc890a998,0x8988980a,0xa999aaa9,
	0x12018088,0xba808022,0x010098ae,0xe9188080,0x22109bff,0xc1998102,0x10000fff,0x90023432,
	0x0338afff,0x12330312,0x0039effc,0x54408010,0x011aeff6,0x72099990,0x10881a84,0x399abb80,
	0x80901898,0x89891a81,0x88812a98,0x08080111,0x19011098,0x98980200,0x80818881,0x88901888,
	0x09800088,0x08891100,0x20809890,0x80990001,0x08801180,0x08181000,0x20200818,0x01220211,
	0x212889ba,0xa9882202,0x2208affa,0x90000011,0x221afff0,0x00222381,0x028eff12,0x22211111,
	0x219fff43,0x20088890,0x00bff964,0xabacaa88,0x28bff372,0xc19009a8,0x19ac915a,0xc0002899,
	0x1909922b,0xa19a9180,0x10308108,0x188a8988,0x8a811188,0x19a88881,0x89988910,0x0a908900,
	0x88208108,0x01000123,0x18208888,0x11080234,0x08880000,0x80212323,0x02021000,0x00223331,
	0x99999808,0x98089909,0xa8888080,0x888a9888,0xa9111108,0x889ba988,0x00088089,0x9a888899,
	0x99281a89,0x00001988,0x8a89aa88,0x02253542,0x99a990ac,0x91454774,0x9888089a,0xdeb88000,
	0x92110010,0xafffeffc,0x04218110,0x8ceffffe,0x02180932,0x0adffffd,0x22211023,0x33198bc9,
	0x11008012,0x67764309,0x81188101,0x35567618,0x000a0010,0x03364329,0x89088089,0x99801010,
	0x01018200,0x90888802,0x21100888,0x89aaa881,0x1808999b,0xacfd99a8,0x189bdfff,0xbefdca08,
	0x189bffff,0xdff99010,0x1808efff,0xfffa9882,0x08321fff,0xfc200022,0x10890ac8,0x67533423,
	0x2a880912,0x10110232,0x2888a810,0x980ab902,0x11199218,0xa9908110,0x09180008,0x11201100,
	0x10010802,0x80800282,0x10010881,0x80810200,0x11818900,0x81011322,0x01111212,0x23222120,
	0x01081001,0x00001101,0x11201991,0x10100100,0x00191100,0x08180001,0x18800800,0x10880111,
	0x80888921,0x10800012,0x89b81932,0x41812134,0x99dffdb2,0x62010123,0x08befff8,0x75009a88,
	0x1133cfff,0x82019999,0x837662ff,0xc8189bb9,0x9899122b,0x9821109a,0x8ac89908,0x080120a8,
	0x8b998989,0x99821aa9,0x100a8898,0x89819b98,0x18880101,0x189aba08,0x1181899a,0x99998980,
	0x32133433,0x33532122,0x33333211,0x22231101,0x11110180,0x11100011,0x21100080,0x90000181,
	0x21198800,0x0809a801,0x10001881,0x21108100,0x18218888,0x88919818,0x20080909,0x99811311,
	0x31908008,0xa9812322,0x10099010,0x89010121,0x20111822,0x32111099,0x80812342,0x53301cd9,
	0x09b9830d,0xcfcbeff9,0x19ccffff,0xffffffc8,0x00adffff,0xffdbb980,0x22089aaa,0x80811011,
	0x01189889,0x89000808,0x00882808,0x00000988,0x88008811,0x88809880,0x88998991,0x11000010,
	0x08a88991,0x10221801,0x99000001,0x90018a80,0x88825082,0x18a11008,0x99880002,0x0911c119,
	0x18ccb808,0x811aa088,0x0081131a,0xcafc8188,0x130455ff,0x9cfda898,0x23354dfe,0x48b89898,
	0x25549ff8,0x44189908,0x2419fff0,0x33339818,0x088cffc0,0x01220088,0x0889bba1,0x30180808,
	0x00018899,0xa8a00002,0x0188adde,0xdddb9001,0x088bbcff,0xecccb980,0x01013225,0x32299a91,
	0x12346777,0x75109b88,0x02224320,0x1a020a01,0x0188adfe,0xd8210800,0x1aaab982,0x19880901,
	0x08881101,0x99a80001,0x001088a9,0x88081001,0x21808881,0x01811112,0x28890019,0x88918981,
	0x20099900,0x80889808,0x11001000,0x9888a881,0x10219998,0x80819900,0x10110880,0x00002002,
	0x31210118,0xbcc90032,0x13121201,0xafffb801,0x01111335,0x0effea81,0x11181013,0x48fffd00,
	0x189a8a92,0x53bfff91,0x08a90aa9,0x5519ff90,0x19b8988a,0x1214cfb8,0x1181009c,0x03210db9,
	0x1110899b,0x0432aa98,0x22118880,0x0100a982,0x1002a909,0x899a8910,0x18090889,0x00018100,
	0x11802008,0x80810810,0x13121889,0x18110101,0x22120118,0x00011802,0x10110200,0x00801101,
	0x9a980a89,0x9aaa8a89,0xa9908090,0x0009a808,0x88122100,0x99998809,0x90141080,0x8112100a,
	0x01121904,0x44332419,0x82332080,0x0a882220,0x81233608,0x00112400,0x08124743,0x1245430a,
	0x88afda81,0x090999a9,0x089bedd9,0x9bcecb9a,0x82353128,0x9aa99a98,0x02253121,0xa8888900,
	0x08089b99,0x010089aa,0x98aaa910,0x20898a98,0x98aa8018,0x898a9aa9,0x88980899,0x089a9a89,
	0x88908999,0x90088988,0x80998991,0x11118908,0x09888198,0x00000899,0x80000088,0x08002118,
	0x0808a112,0x23102808,0x9131352a,0x98890108,0x815549ff,0x8aa99100,0x8912fffb,0x20190009,
	0x8bceff94,0x2088098a,0xa9dbbb98,0x88bcc800,0x9a1a8dff,0xffca9088,0x02111299,0x00121218,
	0x88213244,0x31122208,0x90811889,0x00211010,0x81802083,0x11080080,0x81888a81,0x19811010,
}; //first channel is topmost bit

// Layer: L2
// QuantType: 4bitsym
#define L2_active
#define L2_bitperweight 4
#define L2_incoming_weights 64
#define L2_outgoing_weights 64
const uint32_t L2_weights[] = {
	0x19008c98,0x19850009,0x37a0913b,0x121a2025,0x00812030,0x8ca89131,0x95a0b980,0x18a0b008,
	0x126818b1,0xd1090a22,0x80318ada,0x88818a90,0xc818b1a0,0xa1191990,0x2a890115,0x00b80909,
	0xaba02311,0x01a92b84,0x39381308,0xbca02a8b,0x0001103a,0x0818a9aa,0x00902b8b,0xa0bb031e,
	0x18120a18,0x80aa8a93,0x18a11119,0x0200a999,0x9838b090,0x2033c0a7,0x98298080,0x3889dbeb,
	0x000320a6,0x192cb088,0x8a288810,0x80281881,0x810008d1,0xf87208d1,0x51a0aa2b,0x0b103028,
	0x2331192d,0xa00130a2,0x8a03828a,0x2210c190,0xb9980938,0x18c34981,0x82181ac1,0xa00a1b03,
	0xd2f01000,0x22808008,0x1883032a,0x013c3119,0x32031811,0x0a090aba,0x311810ac,0xc8d2281a,
	0xa30290a0,0x2e19a240,0x19c88a2b,0x001b2942,0x02311a18,0x221a0001,0x281f8023,0x90220822,
	0x1a181880,0x19cc811a,0x80c05811,0x21f90c18,0x9a8902a3,0x1113e202,0xa88a9a84,0x0028b0a8,
	0x891c1b92,0x830193aa,0xa81b8390,0x0ca3811a,0x8bb99088,0x50288906,0x09920440,0x1ccac9b2,
	0x138c9a14,0x800a2984,0x03989080,0x0282ac08,0x1931aa9c,0xb01221a2,0x90c91b48,0xf82a898b,
	0x1111b0a1,0x301b22bd,0x88a09212,0x88001baa,0x290448b8,0x08029a99,0x092ac918,0x8c0b15a8,
	0x4989a898,0x0298ca3b,0x9083a089,0x008008bb,0x886bae92,0x13b18981,0x3a43c000,0x34000852,
	0x321198cd,0x898a1aa9,0x84b810a8,0x82089e80,0x1a30f9ea,0x94f00a89,0x19b2321b,0xa6209a89,
	0xa808280c,0x09808a0d,0x98328091,0x23518502,0x8090308b,0x92c09994,0xba322cc1,0x00883118,
	0x19800490,0x38908888,0x58088d01,0x0920921a,0x350db8f1,0x1411a999,0x10ac0899,0x183a2492,
	0xa0f0b829,0xf8c222a1,0x1000bd91,0x32039228,0xe1bd9a33,0x89a00882,0x92111014,0x89118891,
	0x88adaa91,0x1248009b,0x9044c800,0x05601099,0x0988ab80,0x00a82011,0x09820139,0x91a92ca1,
	0x98a5bb82,0x22080121,0x2a911008,0x19c03b08,0x20182c03,0xa82a81a8,0x29020339,0x11d18810,
	0xb89240b8,0xf82908c9,0xb1c900c2,0x93394042,0xf083929a,0x00080229,0x088a8212,0x4b93088a,
	0x82998000,0xe8915d02,0x1a889030,0x189088ba,0xf911209a,0xc830eb9a,0x93024a21,0xe0a19428,
	0x1a03f882,0x81828381,0x92ba0211,0x3209b1a1,0x89008b11,0xfb0ab559,0x288b8928,0x210e0923,
	0x24212208,0x91110019,0x3981d188,0x62b09b20,0xc824893b,0xa909891a,0x101b8323,0x1c03a8b3,
	0x212142ab,0x8802c3ae,0x9d9d991a,0x99a2b219,0x08c881ad,0x08191029,0x2391b300,0x2a1b0104,
	0x130f019d,0x081120c9,0x88ad9100,0x91880207,0x09b1098c,0x1099b460,0xa80c1399,0x5111a091,
	0x0900b311,0x08383ab0,0x12c83811,0x98a8bb88,0x18db09b4,0x1018c281,0x029a8a0b,0xdb6b1102,
	0x291499d1,0x2a1bc128,0x92e20919,0x08881b22,0x488821f2,0x808a2049,0x4009c512,0x32190802,
	0x12ab8b08,0x10950a30,0x12180833,0x88f01200,0x0a00b188,0x0938b67b,0xb29191a0,0x4900fa19,
	0x8cf28820,0x87b003fb,0x2880a910,0x21820d19,0x209a8104,0x0b0f9009,0x10919811,0x09cc8180,
	0x01122882,0x91b891aa,0x03ad1230,0x0ba80a30,0x02b1a3eb,0x01808458,0x13b9035c,0x3f80980e,
	0x4f58f088,0x1f300863,0x8939309a,0xa80b8880,0x88b90004,0x21a11801,0x00298888,0x9a8980d4,
	0x190d98b1,0x813a91a1,0xc11801f9,0x8c11db12,0x1b8bb899,0x00a24014,0xab839321,0xb8390998,
	0x1f0fa334,0x4000da88,0x10da104c,0x8a999918,0x00295198,0x8848a080,0x899bb92e,0xa008259a,
	0x3501281b,0xc4814e91,0x08a18898,0x842a118b,0xb8940098,0x9190c888,0x10108cbb,0xc9a92909,
	0x901c1b90,0x9ca8a045,0x80422102,0xa8c11803,0x8830a01e,0xb9829190,0xd8000d92,0xe212c91e,
	0xb18001be,0x01290a90,0x980b10b1,0xbb289988,0x09b8ca81,0x10282628,0xaac0833a,0x11299002,
	0x8a84ba92,0x39938180,0x7891a351,0x190a3013,0x2003a8ba,0x80181018,0x1388c020,0x31c88a93,
	0x98ad90a0,0x3148b13b,0xb0538208,0x8118b000,0x59209181,0xc90af003,0xfa3d018d,0xd12389ba,
	0x198fa290,0x101001cd,0x8a128821,0x928092c0,0x2888c018,0x1b8a923a,0xc09b229a,0x2739a0a4,
	0x981a2b89,0x80110920,0x002401a0,0xabb1819a,0x2ba0a3aa,0x08848210,0xd2011dca,0xc3289a1a,
	0x800a8250,0x2012a21a,0xfa188595,0x128288bb,0xbac38a20,0xa8aa0823,0xa9a0a88a,0x990983a8,
	0xf5b20918,0x4bb20088,0xb2190111,0x808a4854,0x20848a34,0x08000229,0x9191221a,0x28e58880,
	0x803818d0,0x2a0880a0,0xf20880f0,0x09302830,0x3294a900,0x10810210,0x1c88b102,0x308309a1,
	0xb8f9a009,0xf1cb9120,0x81101fa6,0x582bb280,0xe2cd9987,0x88880998,0xa0b0089a,0x09002c81,
	0xe054a990,0xc4e911b1,0x2881a913,0x012b9810,0x00991b03,0xa99d8a88,0x19981131,0x81410000,
	0x0a102121,0x881293c2,0xc8cd3f9b,0xc082d819,0x009e4411,0x01880988,0x11908809,0x0a4b032a,
	0x8a0ba23c,0x19010880,0x2ac81129,0x0310189c,0x11a0811b,0x48ab0990,0x486a40a8,0x1b811188,
	0xc098adab,0x99b10931,0x821322a5,0xa29b1caa,0xbba18882,0x18c20230,0xa0b82aca,0xa3809a24,
	0x90a18888,0x291ea280,0xe2991b11,0xc138a810,0x8a8bb190,0x1998231b,0x0b20254a,0x4020aa21,
	0x88950881,0x91a2a090,0xb210310a,0x428c088a,0xe8b0a3a8,0x882b4130,0x2100d995,0x29888b11,
	0x0c86929a,0x88981099,0x920d3a90,0xb20891b1,0x288980a9,0x19b8499b,0x0ac2b0c9,0x522a0324,
	0xdba08a80,0x11a31990,0x033a1838,0x2b010338,0x299892a3,0xa11be82c,0x01b08821,0x38b9acbb,
	0xe9f09011,0x2c992928,0x4a381038,0xa11b4019,0xc9121981,0x80288a81,0x1188280d,0x1004188a,
	0x1a2cb030,0x89202e22,0x8baa1c89,0xbb93a0c8,0x028c8886,0x8008abbd,0x28141a89,0xe2991829,
	0x1228b99a,0x88892d91,0xa09b3191,0xc99a0888,0x9042a18c,0x02f8012b,0x1cf19319,0x03808a09,
	0x918baa84,0x2a881b49,0x015a1811,0x0a82098b,0x31e8b090,0x85418121,0xa824181e,0xfa9a898c,
	0x888cb90e,0x909229c1,0x95ab9003,0x30883823,0x18b14a01,0x40880138,0xd0a882b2,0x2180c1c2,
	0x0113831b,0x80038219,0x08828c01,0x00089293,0x01895241,0x18b09db9,0x91298bc8,0x01301501,
	0x898a1c23,0x91a81a89,0x179c1099,0x08e81902,0x0ba08209,0x1140d658,0xc8910119,0x1090f898,
	0x0119b199,0xa2984bb3,0x0c30119d,0xa022c89c,0x10a9b81c,0x118280a9,0x2a800a80,0xb1dc2088,
	0x199ca03c,0x2918c228,0xf885289b,0xa89101b8,0x3a38aa13,0x01c03a91,0xb83208a9,0x85298829,
	0x8a990395,0x21990d10,0x1c1c100c,0xffba1a1a,0x0081010a,0x0119cdcb,0x2ab39228,0xa9b1122e,
	0x30910181,0x001990a9,0x9088c028,0x51119811,0x8819908b,0x88129a98,0x8a18b004,0x883000a2,
	0xad95b89b,0x12591020,0x990030a8,0x912a5aa1,0x1aa82397,0x88d92980,0x2b1018a3,0x4bb038b8,
}; //first channel is topmost bit

// Layer: L3
// QuantType: 4bitsym
#define L3_active
#define L3_bitperweight 4
#define L3_incoming_weights 64
#define L3_outgoing_weights 64
const uint32_t L3_weights[] = {
	0xa19aa1c9,0x11aaa820,0x0caa0d90,0x02e00bb3,0xc811ba03,0x8b820581,0x128081a2,0xa1014880,
	0x20b19181,0x81ab3b0a,0x13a49520,0x0184803a,0xb8aa1900,0x08998980,0x01a228a2,0x0c58a819,
	0x08a0a098,0x99a22c29,0x5801924e,0x9b51c119,0x33a83c80,0x4383ac21,0x88a88a0a,0x008ca200,
	0x30aa9903,0x929141a2,0x008b9894,0x89028899,0x8a218030,0x22298b82,0x8f8230a9,0xc129309c,
	0xab28bc90,0x809a22a0,0x51191b00,0x18925888,0xa9489a20,0xa3919b82,0x99a81082,0x102ba180,
	0x1c800803,0xc108c8c3,0x8c000902,0x3a01a2d9,0x1888be9f,0x1441821e,0x1a10193d,0x298aa098,
	0x81914188,0x2aa10049,0xaa20a08a,0x10098821,0x20189201,0x98911908,0x91081a88,0x81808c84,
	0xb9248930,0x81149202,0xa9012181,0xa10c211e,0xc1980dc8,0xd8dc080a,0xb82883b8,0x98e28098,
	0x529f81b8,0x88802b1c,0x2e81213b,0x9a918082,0x12218b89,0x41049201,0xacbcb90a,0x043c9001,
	0xa0210c88,0xb2a91101,0x91228888,0x0a88506a,0x8c00a19a,0xa80c888a,0xa0829130,0x49498294,
	0xb113019c,0x8812830a,0x8009908a,0x280ba1d0,0x91b82a20,0xcb8a0914,0x0808ba2d,0x88829482,
	0xa9190221,0x8b809212,0xa01a00aa,0x992b0bcc,0xc2290b93,0x033e9914,0x28993c13,0xe819b9b8,
	0x9421119a,0xb8899130,0x00a82b19,0x2d991bc9,0xa900a01a,0x9faa811b,0x1113a093,0x8993980a,
	0x2193b214,0x3e200810,0x2280223d,0xa18c3ccf,0x81a938ba,0x29a0990e,0x10903d90,0xc0aaab1a,
	0xc12010ba,0x9a191200,0x9294109c,0xbd91b2ad,0xd2292293,0x80da99a0,0x83a29a34,0x998080c8,
	0x22b21012,0x380d593c,0x0832c10a,0x1a20a868,0xb900d289,0x94492a28,0x98189288,0x281b9c11,
	0x109bc100,0x8aba281a,0xa8a8acc8,0x9a8e1a22,0x808ac002,0x0a9f812e,0xa00a01ab,0x81e11c16,
	0x90138211,0x0b33a8a1,0x8221103d,0x920aa19e,0x01d92ab9,0xa2ab0a99,0xa38e89b9,0xb9b0fa9b,
	0x3a2119ab,0xf911d0c3,0x9dc18081,0x39c8c4d0,0x60121c8a,0x2031a289,0x8a991b0a,0x4a2998ac,
	0x08898003,0x1981b831,0xa28881d0,0x804da391,0x5801a3d1,0xda028243,0x0a811a1a,0x08909801,
	0x19012ca8,0x3241bac1,0x022f38b3,0x842882a0,0x0da28988,0xa39104b1,0x0b202c80,0xa139a01a,
	0x0b2aa030,0xa0a0c18b,0xa90900a0,0x099160ba,0x823b8f80,0x021eda20,0x10023908,0x19080088,
	0x800212a8,0x0292cb80,0xc8b9f1a2,0x133101d2,0x08d481a2,0x0e311089,0x88399a21,0x4823a009,
	0xb0a0298a,0x1189e193,0x89aa08e0,0x231010b2,0x1a13d988,0xba824500,0x2e0d2980,0x203128a9,
	0x399e0a99,0xe80a1108,0x9ca10a00,0xea831139,0x101a8110,0x31909bb9,0x01c40b92,0x092b9808,
	0x02b490ca,0x3208010c,0xa3a29908,0x30019d81,0xa0c22423,0x8d8919a3,0x13209123,0x1c109989,
	0x18abab9b,0x19829b30,0x13ca1b10,0x0a921c0b,0x191bc98d,0x4000d808,0x29b4a0d3,0x1181b831,
	0xc1140c09,0x92221100,0x82005a30,0x8b0a199a,0x0ac52990,0x99c99b89,0xb108a101,0x99c98281,
	0x18a904b9,0x2014d830,0x110a0919,0x82a8e1f0,0xd2c83ec0,0x80180189,0xaaceabb2,0x0140bc0e,
	0xc3043809,0x8108890e,0x2303ca3a,0x8a0a1982,0x898098b8,0xa9a92a90,0x14289813,0x1ae81982,
	0xf1842c88,0x20090098,0x818adaa3,0x02190011,0x0f83e508,0xb90209a3,0x03198011,0x8aa09221,
	0x2889a908,0x8100890b,0x88998c32,0x80022008,0x88a00bb0,0x2812c992,0x90c02a83,0x493bc840,
	0x9888e109,0x0af11941,0x93111a10,0xb1923e0a,0x039a9191,0xa0909913,0x911801a0,0x00842b01,
	0x1082d080,0x8b331a42,0x33880109,0x2238ca10,0xb0b93129,0x10a51848,0x48190a0f,0x010a11a8,
	0x00b8c3fd,0x09892111,0x81afaac2,0xb101ba31,0xc9991640,0x19a24083,0x0232029b,0x9884180b,
	0x089f8b98,0xa21b43c9,0xaa001292,0xbb32308b,0xb92b0810,0x31adb9d3,0x21a31a90,0xaa8e9919,
	0x8b80a012,0x80bf4088,0x92ad89c0,0x02a0a08d,0x20b90028,0x0e88a291,0x0812a3a9,0xa8123980,
	0x19811a24,0x091c21a8,0x901a89c8,0x21b98b02,0x3823d308,0x923c801c,0x18a90390,0xd0b932a0,
	0x0009028c,0x918a930b,0xc94a9889,0xc831100b,0xa3892882,0x208f88a1,0x84d2b0a4,0xc1018bb1,
	0xb8323208,0xab3b93f2,0x1b80999a,0x81c81ab1,0x18100882,0x882a0829,0xab010923,0x90d3228b,
	0x01091800,0xa192b02b,0xaa209101,0x1f81c2b8,0x848aa001,0x8a19841e,0x803ce149,0xa81223b1,
	0x1009919b,0x101ac299,0xab1100bb,0x1191e2d1,0x81104001,0xab91a294,0x499ba01a,0x3a1122ab,
	0x1b108a4a,0x03b0bb01,0x991b1881,0x90392082,0x12990b8b,0x823ccb8a,0x9129490b,0x099a1381,
	0xc2023128,0x5000101b,0x890281aa,0x1888f200,0xb00981c3,0xb89091ac,0x028bf022,0xab9018a9,
	0x09288b22,0xa1180003,0x913a0aeb,0x9a280aa8,0x18a09800,0x018eac0a,0x81013a11,0x412898c3,
	0xad121b89,0xba912b13,0x488d2b91,0xf18a3820,0x3aaabaf0,0xca000802,0xcba21190,0x02b19212,
	0xa9310a93,0x981082b3,0x198c01a0,0x3b2ac1b1,0x3181bb0d,0xb051211f,0x99189c1a,0x0090a280,
	0x11815889,0xad008328,0x12981919,0x0a1882c9,0x0389a119,0xaac32303,0x0919a929,0x91898018,
	0x89182133,0xa21a982a,0xa01c91c0,0xa833d2b9,0x08e120c0,0x2341a090,0x82309db9,0x9a8abad0,
	0xc8019b11,0x090923c1,0x84391099,0x28293038,0x2c42c049,0xe11f0aa9,0x91402011,0x089a1192,
	0xc001c8a9,0xbb020982,0x481a1810,0x9214921a,0x00bc0901,0x1818342a,0xcc809398,0x01889011,
	0x0813a122,0x80ba2190,0x9203848f,0x9bba0a21,0x80080881,0x01ac1a1c,0xb48b3810,0xa12a1092,
	0x2aa92808,0xa104db38,0x488c9935,0x12210198,0x00b1acb9,0x0c258220,0x9a0e8a90,0x2091d139,
	0x3a8aa030,0x0ac23a39,0x90a58c0d,0xa88c8f30,0x92890182,0x208d0828,0x018a88a8,0x92923b93,
	0x2c081120,0x91910050,0x02399188,0xa82a280a,0x128228a0,0x1249e902,0x13292ca0,0xba99b081,
	0x0028d1ec,0x9028919b,0x0e081c99,0x998899b1,0xb82a4892,0x1c99a1b3,0x0282c009,0x08020598,
	0x11089888,0x8c812090,0x89831aaa,0x20eabd0c,0xa1208820,0xa1bb120f,0x811b8210,0x918122a2,
	0x190ba188,0xba002a91,0x9921811b,0x01b0b952,0xaa83811b,0x12a15809,0xa0a08830,0x318139a0,
	0xb1c83998,0x400a080c,0x2080bb19,0x28808b22,0x9a30e211,0xa0830305,0x419b0018,0x38081a00,
	0x121189ab,0x1400edbc,0x80c31b14,0x12b080f3,0x80038090,0x90819998,0x208b8810,0x4c10a099,
	0x191b8c18,0xc391aa81,0x9c010982,0x0b0029ca,0x3090a348,0x08a10591,0x1a082489,0xd2090002,
	0x1108c10a,0xbb9bb2b0,0x1f82219c,0x29a2dbc2,0x224a0930,0x8a9a0329,0x39b9011a,0x9290209f,
	0xf8814929,0x1808120a,0x8131d9b1,0x004c8910,0xaa80c318,0xf81219c1,0x133001a0,0x0bb81b12,
	0x92880282,0xad910811,0x720d2950,0xf820abdc,0x09898809,0x8a11018a,0x9eb008b9,0x08c8b808,
}; //first channel is topmost bit

// Layer: L4
// QuantType: 4bitsym
#define L4_active
#define L4_bitperweight 4
#define L4_incoming_weights 64
#define L4_outgoing_weights 10
const uint32_t L4_weights[] = {
	0xbaaa0208,0xbc39ca91,0x1b211b32,0x19abac29,0xaad9ab81,0x28cba330,0x0a0d28b1,0xb8ba2812,
	0xb32a83bc,0x19aa90b2,0xb94bb2d9,0xab9baaba,0x02189abb,0x112a2b98,0xbb01aa92,0xb103b0c0,
	0x1a281c09,0x20883108,0x9391ba88,0x0a333c08,0x20a0aaa8,0xa9bbc181,0x011b180a,0xba0aa092,
	0x1ca29a13,0x888b8a90,0x42808baa,0x3aa189ca,0x203a2218,0x8aa8aba8,0xb910b29a,0x120a1ba8,
	0x91b22abc,0x8282a92a,0xc8b80288,0x391aaba2,0x9ac3aa18,0xa0981ab8,0x90801980,0x80a880a9,
	0xa1919919,0xb18998a1,0xaca08a88,0x020b831a,0xa0218200,0x0ac3bb88,0x1199aca8,0x98291c38,
	0x02801bba,0xac9a8aba,0xb9993922,0x92a82222,0xabaa90ab,0x12c0899b,0xabab0aa8,0xd813ba99,
	0x081ab190,0x0ab29390,0x929210bb,0xab99bb99,0x30c8ca18,0x9919182a,0x30a0a33a,0x9aab808a,
	0x288ba891,0x90392d2b,0x0990bba1,0x119390a8,0xa1899911,0x11019903,0x8ca8aa92,0x000982ac,
	0xabc80901,0x02a1a80a,0xbdab818a,0xb9b29009,0xea892281,0xab28139a,0xa2020809,0x10c81208,
}; //first channel is topmost bit

#endif
