// Automatically generated header file
// Date: 2024-09-05 14:15:11.804110
// Quantized model exported from opt_Cosine_lr0.001_Aug_BitMnist_PerTensor_4bitsym_RMS_width16_16_0_bs128_epochs60.pth
// Generated by exportquant.py

#include <stdint.h>

#ifndef BITNETMCU_MODEL_H
#define BITNETMCU_MODEL_H

// Number of layers
#define NUM_LAYERS 3

// Maximum number of activations per layer
#define MAX_N_ACTIVATIONS 16

// Layer: L1
// QuantType: 4bitsym
#define L1_active
#define L1_bitperweight 4
#define L1_incoming_weights 784
#define L1_outgoing_weights 16
const uint32_t L1_weights[] = {
	0x11101121,0x109abccb,0xa9800111,0x10111101,0x121218ac,0xbca8a908,0x80000011,0x12122224,
	0x19dfc900,0x80008000,0x00811012,0x24431bff,0xfaa09000,0x81800001,0x10223431,0xaffffa88,
	0x89818000,0x00011124,0x4538efff,0xfb2188a9,0x00011900,0x11344542,0xaffffb02,0x20981080,
	0x10101123,0x45119fff,0xfc321209,0x80819110,0x12333412,0x8ffffa34,0x12999890,0x81210121,
	0x20120dff,0xf9453089,0xaa801122,0x01201802,0x0affe034,0x2088ab98,0x02221110,0x88098abd,
	0xa114108a,0x99911224,0x00000809,0x898a8013,0x108a9998,0x02230098,0x08890011,0x1030109b,
	0xaabdb902,0x8898a000,0x80100110,0x19a999ab,0x9a908888,0x9a820101,0x12210889,0x90819a90,
	0x09990188,0x80810218,0x80088001,0x88008899,0x01008889,0x11080888,0x80101088,0x88091080,
	0x01018088,0x88088808,0x98808801,0x01818101,0x12111008,0x00908880,0x88101812,0x11011010,
	0x12101098,0x88980801,0x01121010,0x18100000,0x01898980,0x00121211,0x11098808,0x11100019,
	0x99800011,0x12188898,0x98088818,0x10199811,0x08008880,0x90888908,0x80123100,0x80010888,
	0x98998088,0x8889a009,0x98888811,0x00889000,0x88818988,0x8999ab88,0x81111000,0x889989a9,
	0x9a9aaaa9,0x99900011,0x11000088,0x8999a999,0x88880800,0x01110111,0x000999ab,0xaa9a9999,
	0x98001000,0x11010888,0xa9998808,0x08000000,0x08011111,0x01008888,0x88890808,0x80808000,
	0x11000001,0x89008001,0x08000888,0x80001000,0x02211112,0x01880080,0x88001288,0x11001210,
	0x08020100,0x10880008,0x01011008,0x82200818,0x01100088,0x00001180,0x10108000,0x10180800,
	0x00008808,0x08800012,0x08018889,0x08008008,0x00088898,0x08042809,0x08090899,0xa8888898,
	0x98981100,0x000088aa,0x89088898,0x99888890,0x18881810,0x88010010,0x80190011,0x01201899,
	0x11122232,0x31100001,0x11022210,0x09aa2224,0x34322121,0x00088080,0x08980acd,0xc8112233,
	0x22000000,0x88880888,0x8beffffe,0xd9023210,0x08098888,0x10108bdf,0xfffffffd,0xb0999889,
	0x88819010,0x09bcffff,0xfffffebb,0x99988088,0x90001811,0x8bffffff,0xfebb9989,0x08882110,
	0x11154442,0x11122280,0x88088810,0x10001113,0x43454342,0x21100880,0x00811118,0x22113213,
	0x21120100,0x00000800,0x08082111,0x12222211,0x10000808,0x88888988,0x11122112,0x11110108,
	0x80898088,0x88011110,0x88898080,0x80880880,0x88088800,0x11118088,0x98888000,0x08088899,
	0x00010110,0x08888988,0x998aa99a,0x99800101,0x998999aa,0xa9a99998,0x9a999889,0x88889889,
	0x99a99818,0x08aaaaaa,0x98888898,0x89999998,0x1221099a,0xa9880008,0x898889aa,0xa9801442,
	0x89abcba8,0x01008888,0x8aaa9012,0x33218aab,0x99901082,0x10889bbb,0x81336651,0xacb8aa80,
	0x11005200,0x9bb90344,0x6721aec9,0xa0a10013,0x4310abb8,0x91226751,0xdfb90000,0x01143218,
	0x9aa88213,0x4673ffc1,0x00888113,0x21a9aa90,0x00002574,0xffc22000,0x98899dda,0x99801102,
	0x2365ffd8,0x09a99ace,0xffeaa932,0x21211356,0xff988a88,0xbacddca9,0x90441101,0x2236bdb0,
	0x90088883,0x2300a022,0x01332223,0x8aa89888,0x83323318,0xa0122643,0x22038ba8,0x88888990,
	0x20089802,0x20008112,0x19898888,0x99998118,0xa9008989,0x88001908,0x88880808,0x809aa981,
	0x08188998,0x89890009,0x08091008,0xa8101019,0x01102008,0x88088888,0x1808a800,0x01082102,
	0x20209001,0x80880810,0xa9028811,0x12012301,0x88088018,0x1108a801,0x20811111,0x11210188,
	0x11811800,0x998808a0,0x18008001,0x80808080,0x88889a80,0x80000118,0x10000090,0x88008088,
	0x9aa99008,0x09988180,0x98100890,0x08899999,0x08880988,0x80830809,0x81188888,0x999a9998,
	0x088080a8,0x81010989,0x99999999,0xa99a9989,0x98888008,0x88989998,0x23231111,0x89999801,
	0x12110123,0x32233222,0x2009bdca,0x99088000,0x80112332,0x231118ac,0xefd98008,0x08808802,
	0x13322211,0x89dfffb9,0x22088801,0x80112232,0x21118cff,0xff902211,0x89808011,0x13322210,
	0x9ffffd13,0x63210a90,0x81121134,0x3229bfff,0xfc145511,0x8bb80122,0x12442119,0xeffff924,
	0x77289999,0x88111233,0x2219dffb,0xaa957748,0xb9880018,0x42132109,0xcfe9ab94,0x775bd988,
	0xa1813201,0x120999a8,0x9a92662a,0xb9899880,0x10012189,0x9001aa91,0x528b9aa8,0xaa989801,
	0x11889808,0x8802429a,0xaa9988ab,0xcba01008,0x89801212,0x18a8a988,0x8889cdc9,0x20999121,
	0x20101208,0x80800013,0x0aa01099,0x88000000,0x88808808,0x11812090,0x08980899,0x88800000,
	0x88800008,0x18980899,0x00800889,0x98018088,0x90190081,0x88898101,0x08880800,0x88880889,
	0x88000901,0x88088018,0x01000088,0x88080001,0x00108009,0x88801202,0x01008888,0x10011888,
	0x01801281,0x08010010,0x00880001,0x00809080,0x08000898,0x01200180,0x80111008,0x90199098,
	0x08800801,0x18000022,0x11189888,0x89109809,0xa0899808,0x01021108,0x08009089,0x80098880,
	0x10810012,0x21108188,0x09081881,0x10900880,0x02222111,0x08808808,0x88988888,0x88011122,
	0x88988890,0x01110008,0x88800009,0x89898889,0x88801000,0x88999988,0x08008889,0x98800980,
	0x11100089,0x88888810,0x99898888,0x88011000,0x01108800,0x08888988,0x98888800,0x00010000,
	0x90080080,0x80988808,0x00000811,0x12111880,0x98808009,0x88000000,0x00800080,0x09808089,
	0x88998088,0x18889998,0x88888890,0xa981109a,0x88080999,0x99aa9998,0x89890090,0x09aa880a,
	0x89889889,0x99a98988,0x9999a9ab,0x88898090,0x81889099,0x889999a9,0x999a9098,0x80100810,
	0x00088980,0x88a9aa9a,0x880a8088,0x10900988,0x89089880,0x00888888,0x88080818,0x998988a8,
	0x91134208,0x01088910,0x0998aa99,0x88080112,0x12201121,0x999a8a9a,0x9a990800,0x10802121,
	0x133221bc,0xcb9acba9,0x98112030,0x12322234,0x430209bb,0xbba88111,0x11188342,0x22354554,
	0x64344434,0x32331221,0x04211323,0x34667777,0x77654434,0x33320210,0x12133243,0x46557443,
	0x42220321,0x10000803,0x01021111,0x11211318,0x00801188,0x88919990,0x01880000,0x00908198,
	0x10898989,0xa0899880,0xa8988001,0x01000889,0x8999a99b,0xaaa98899,0x98a99811,0x1088888a,
	0xababbece,0xfdcdccaa,0x9a888088,0x989989aa,0xbaaaaaba,0x9aaa9988,0x80988899,0x88aa9998,
	0x08880898,0x08998888,0x00001111,0x12222321,0x11010112,0x12100101,0x11223433,0x12120000,
	0x01133221,0x10112223,0x11121101,0x00110011,0x22210111,0x12111011,0x21020010,0x31132311,
	0x00211112,0x21311111,0x18111088,0x21221100,0x12010101,0x02021100,0x11301222,0x10088210,
	0x10101800,0x00810021,0x22121108,0x10012111,0x20010100,0x18101112,0x00180000,0x01820001,
	0x88101222,0x5402088a,0x98081803,0x01008888,0x90103311,0x08b89a80,0x10223232,0x10800002,
	0x218009ca,0x99881001,0x43432221,0x10999bb9,0x09ddecb9,0x01222232,0x0220099c,0xedcb0adf,
	0xfffda882,0x24222008,0x9abcddca,0x09ceffff,0xffc93421,0x10898999,0x88aa009b,0x9fffffff,
	0xf8220880,0x0810019a,0x1021118c,0xffffffb8,0xa8808110,0x19980133,0x31221bff,0xffda9890,
	0x80818909,0x01053122,0x23209ba9,0x80980090,0x08990082,0x12422222,0x10898880,0x00008888,
	0x00888810,0x21008089,0x08008828,0x8899999a,0x89080890,0x98888808,0x10098a89,0x89888aa8,
	0x8808880a,0x80919008,0xaa880899,0x9abbaa89,0x08888908,0x80a9a988,0x8888a888,0x8a0a9899,
	0x089899a9,0x99008880,0x88808908,0x82888988,0x80888881,0x00808898,0x9980a980,0x888a9988,
	0x00010000,0x008898a8,0x999aaaaa,0x99800000,0xaaaa9890,0x88088898,0x9999899a,0xaa9aa999,
	0x90011112,0x12231010,0x88889a9a,0xa9a80022,0x33322123,0x20100108,0x08aa9988,0x12435443,
	0x33123211,0x0010119a,0x9a802345,0x35443343,0x32212000,0x108a9981,0x35544564,0x32234330,
	0x21202289,0x99813544,0x44344422,0x21322121,0x12199980,0x22242333,0x33122211,0x21121219,
	0x99ba0098,0x88a80024,0x33222011,0x02199bef,0xfeffffff,0xebb02232,0x08220200,0xacffffff,
	0xfffffdc9,0x10808128,0x8010aeff,0xfffffffb,0x9b988890,0x8a000100,0xadffffff,0x90310980,
	0x88889998,0x88099acc,0xc8811082,0x22800999,0x00881008,0x88012121,0x80131118,0x08888898,
	0x08180233,0x12181120,0x82810989,0xa8880800,0x13228121,0x11081800,0x98889899,0x88010221,
	0x32210999,0x8a989899,0x99001180,0x81232400,0x01180a89,0x89988801,0x28801222,0x10111211,
	0x00888008,0x01100008,0x02243032,0x10811190,0x08888088,0xa0988013,0x11000108,0x88898808,
	0x80010008,0x80010281,0x0809a90a,0x98800001,0x08998980,0x88a8a800,0x88aa0a88,0x80890889,
	0x99981098,0x8a9900a9,0x9888a999,0x8aaaa998,0x80110001,0x80989008,0x01089999,0xa9a99898,
	0x88880089,0x88008808,0x999aaaa9,0x99880880,0x80000000,0x088899a9,0x10101111,0x1121089a,
	0xbba90000,0x01001101,0x02122118,0x8abeffeb,0xa9000010,0x01110112,0x110108bd,0xffffca98,
	0x01011111,0x11121088,0x8089efff,0xeba80000,0x11112100,0x18008099,0xbffffbb9,0x81101121,
	0x21118880,0x80909fff,0xffeb0100,0x11012020,0x81018988,0x09effffc,0x90111212,0x20100180,
	0x800109af,0xffffa111,0x12123888,0x00308022,0x998affff,0xb0111321,0x20810018,0x11431898,
	0xffffd023,0x23318001,0x89080332,0x2000bfff,0xc9002333,0x11889808,0x02220800,0x0dfffd98,
	0x22220098,0x80900012,0x181999ff,0xfba92211,0x00118800,0x1022001a,0x99a98999,0x01088108,
	0x98090111,0x09889891,0x02101008,0x89091081,0x81220100,0x00802210,0x00808901,0x00810110,
	0x08888008,0x01111188,0x08188880,0x01211001,0x80008210,0x11000010,0x00800001,0x00180108,
	0x81001008,0x80988009,0x01101101,0x18008181,0x01018801,0x81080120,0x11111111,0x10001100,
	0x00011011,0x08000000,0x80800900,0x21008888,0x81088888,0x09181809,0x88001200,0x01000080,
	0x08889008,0x89088801,0x01008808,0x08089009,0x99900888,0x01111110,0x00800980,0x08088008,
	0x88801110,0x11111108,0x80008888,0x80880013,0x21110111,0x11111001,0x01021132,0x33421101,
	0x01111180,0x9999aaaa,0xa9888000,0x00101011,0x80899aab,0xcccbaa89,0x99080800,0x0100088a,
	0xaaababab,0xa9808808,0x90001108,0x889ab999,0xacbaa890,0x99009880,0x10089a89,0x99a98abc,
	0xaa898108,0x00800009,0xa9880899,0x88aa9a80,0x00011199,0x108aa98a,0x800889aa,0xa0001081,
	0x18891089,0xa9199880,0x09aba112,0x01012889,0x00999998,0x0880099d,0xa1321221,0x009a1088,
	0x88999088,0x98afc322,0x4410099b,0x008889a8,0x8898a0ff,0xc5344101,0x09ab1089,0xb8880089,
	0x88ff9522,0x33210aab,0x08888009,0x881888ff,0x24222311,0x09bc0008,0x21288100,0x9bfc3421,
	0x1333328a,0x88000181,0x18889bb9,0x54332123,0x35300880,0x9a900089,0x9ba13302,0x21231352,
	0x88800000,0x9998a982,0x24223431,0x12320881,0x11888aaa,0xa9841232,0x32202021,0x88001189,
	0x89999811,0x32210189,0x00010888,0x9aa80008,0x88112111,0x08001001,0x08800988,0x89808800,
	0x10018808,0x10000098,0x80811090,0x81881201,0x01000000,0x00080010,0x00101090,0x00010088,
	0x08011088,0x08818988,0x80008018,0x10000800,0x10000110,0x01000088,0x00800111,0x80110080,
	0x18009008,0x10080910,0x00008101,0x00088801,0x18188800,0x88001008,0x02010100,0x00001011,
	0x01010100,0x00100011,0x9999a9aa,0xbbbcba99,0x89880088,0x99899998,0x99abcaa8,0x01008000,
	0x08000899,0x99899aab,0xa8808000,0x88808000,0x0889a888,0x9abaa980,0x889a9081,0x08800099,
	0x99888a9a,0xba898990,0x00880213,0x21089980,0x88998888,0x11200081,0x21222318,0x99000321,
	0x12212123,0x12132323,0x44308814,0x22424343,0x32223443,0x32222330,0x98143553,0x55466353,
	0x43433224,0x22018813,0x33224557,0x56641331,0x21100101,0x98211181,0x11020211,0x91002188,
	0x80889980,0x9a899a9a,0xbbdcc808,0x80000989,0x998aaa89,0x9a9bbbec,0xb8800888,0x98898808,
	0x999999a9,0xbccda980,0x00109998,0x80111989,0x89ab9aaa,0xa8801212,0x10888111,0x31088a89,
	0xaab89800,0x11012808,0x80213100,0x898999a8,0x88801028,0x18288011,0x02800808,0x88909008,
	0x10090888,0x88898980,0x89889898,0x88008888,0x9889999b,0xa9899988,0x88888809,0x88881898,
	0xaaaa9889,0x88a89888,0x98a80989,0x9898899a,0x98998888,0x18080880,0x99890888,0x99888989,
	0x01102010,0x0088a989,0x8899a880,0x1100a890,0x08080898,0x80898888,0x99801213,0x08889880,
	0x9020809a,0x89899998,0x21101210,0x21018880,0x80088999,0x99989981,0x08008080,0x19909999,
	0x8999a999,0x99888889,0x99aaaa9a,0x9a999898,0x01000100,0x18088800,0x00111011,0x10011010,
	0x10080899,0x89a98880,0x08808011,0x00008088,0x9ccdddff,0xddcbb980,0x00000181,0x99acefff,
	0xffffffff,0xabb00000,0x0009acef,0xffffffff,0xfcdb9988,0x0880008a,0xdfffffff,0xffedc99b,
	0x9aba9a88,0x0089cfff,0xfffaba9b,0xb8aba8aa,0xaa880899,0xccabfbab,0xbabd9cca,0xa988a088,
	0x0089aaa8,0xcbadbabb,0xa9880110,0x22101180,0x910189a9,0x98881130,0x22323322,0x11108343,
	0x03332422,0x32224221,0x34331121,0x10118313,0x56331123,0x21322343,0x14330901,0x12234232,
	0x22123042,0x35772444,0x32202222,0x30291108,0x00102257,0x34530228,0x088899a9,0x88b9aba8,
	0x90452433,0x01228199,0x09b9a0a8,0x88801022,0x23112100,0x1889aac9,0xb9028213,0x11221210,
	0x022a889a,0xba9aa080,0x01210012,0x011a8809,0x98989aa8,0x88081080,0x0111010a,0x00011089,
	0x89081000,0x08081211,0x80898800,0x10001009,0x01010012,0x80218080,0x1a010802,0x80990000,
	0x12010001,0x00100018,0x01881010,0x90109288,0x01011810,0x81101130,0x11101108,0x80a90800,
	0x01000080,0x00110220,0x00808988,0x18011008,0x1888a808,0x80001001,0x10080001,0x11800008,
	0x18900890,0x81021110,0x00010110,0x21221312,0x13323232,0x12111100,0xabbababb,0xbbbaaaa9,
	0x9baaa99a,0xaabbbaab,0xaaa99801,0x11101000,0x88888aba,0xaabaa988,0x00111110,0x01000000,
	0x09abbbaa,0x98008881,0x12180110,0x00000899,0xbaa80001,0x89008011,0x11110000,0x000aba98,
	0x10008082,0x22210100,0x00001308,0xb9901211,0x08021102,0x22111200,0x1109aa81,0x22008800,
	0x00020111,0x00012210,0xa9122221,0x10000011,0x21121111,0x1108a903,0x22221120,0x01211121,
	0x32020218,0xa8123122,0x11111241,0x11122122,0x0031a811,0x21232108,0x01100100,0x22333361,
	0x90111121,0x88880800,0x00011235,0x6451a018,0x08002121,0x10021011,0x23455761,0x98000123,
	0x33221210,0x11001222,0x4542a810,0x22008012,0x23111101,0x10218200,0x99111109,0x99112221,
	0x01180899,0xaa99b980,0x89a98899,0x00008889,0x88aaac9b,0xa98a9908,0x80800808,0x898899aa,
	0xaaabaa9a,0x98880018,0x20110100,0x8808aa9b,0xa9880080,0x00012101,0x80880099,0x889aa900,
	0x01110100,0x08888889,0x9989899a,0xb9000010,0x18098889,0x8899a989,0x999aaa80,0x08898989,
	0x88898888,0x898889ab,0xba800108,0x99889088,0x89800800,0x99aaba99,0x88899888,0xa9888888,
	0x008099ab,0xaba98888,0x80801818,0x00080088,0x8ababbba,0xa9a98888,0x88808000,0x088aabaa,
	0x11100000,0x08889898,0x88880001,0x11211111,0x00889aa9,0xa9989808,0x88080111,0x1110089b,
	0xa9a99000,0x00089888,0x01011118,0x89abba99,0x98aa8890,0x98888001,0x11088908,0x9aba9900,
	0x98081880,0x01220100,0x088009a0,0x88080988,0x88090081,0x11012110,0x80180900,0x800080a8,
	0x10101212,0x32231818,0x88888011,0x01011001,0x11127344,0x42220800,0x00800080,0x88881243,
	0x55545434,0x32111100,0x11810000,0x11332343,0x33443422,0x10810088,0x18021023,0x32352322,
	0x08988988,0x00008021,0x18891212,0x18acbdb9,0x89888111,0x24238abc,0xdffffefe,0xfda98088,
	0x00122432,0x9dffffff,0xfffca808,0x88908888,0x00a89eff,0xffffff92,0x12108888,0x889aabba,
	0xafffffff,0xf0180110,0x000899a9,0xbbaa9eff,0xfffa3090,0x0110899a,0xb9cbaaa8,0x9defc912,
	0x88812220,0x88888909,0x9a919ab9,0x21210121,0x22321008,0x88800081,0x08802022,0x33222212,
	0x11000890,0x00111013,0x22111111,0x01820110,0x02101113,0x11123312,0x21001810,0x01010011,
	0x12221211,0x22100108,0x00800010,0x11222332,0x11001828,0x08088800,0x91002321,0x32121080,
	0x00000088,0x88008088,0x00012111,0x10108800,0x80010008,0x80000181,0x12101110,0x08898000,
	0x08000010,0x11011111,0x23333345,0x66777777,0x54333322,0x23333323,0x34445455,0x43322112,
	0x11111232,0x33323232,0x22343311,0x00111111,0x12233231,0x22301101,0x22080001,0x02111122,
	0x22221211,0x01088088,0x98988090,0x01132210,0x10808100,0x00800888,0x08011222,0x22112008,
	0x88900899,0x89a98880,0x10813220,0x20010200,0x888890a9,0x988a2102,0x11011000,0x01020800,
	0x98888990,0x08012100,0x08988880,0x18188898,0x80190801,0x21899898,0x90800008,0x80008008,
	0x18811898,0x99999899,0x890a9890,0x88908001,0x1889a998,0x88111011,0x08881008,0x21122008,
	0xa0080801,0x13111000,0x01244334,0x21122211,0x12224511,0x22212131,0x34552124,0x23222222,
	0x13321212,0x22213455,0x32142232,0x11122245,0x22123214,0x35453233,0x22401800,0x01332221,
	0x23028214,0x33021000,0x11000812,0x22221202,0x50143288,0x81808080,0x08121432,0x11801802,
	0x30aba9a0,0x08089088,0x080800a8,0xbe8018bc,0xb8999a99,0x899aaaa8,0xb8cdfca0,0x18cdcbca,
	0xaa9dcbdc,0xbddefeff,0xffb810be,0xdddbccba,0xbdcdffff,0xfffffeb8,0x218befff,0xfffeffff,
	0xffffffff,0xfb802109,0xbcffffff,0xffffffff,0xfffeca12,0x22118bbd,0xffefffff,0xfffffecb,
	0xa0123321,0x089acced,0xdeeddccc,0xa9800122,0xaaabaaba,0xbbbbaabb,0xbbbbaaaa,0xaaabbbba,
	0xaabababa,0xababaaa9,0x9a999aaa,0xabbabbba,0x9999a989,0x08088888,0x89a9baaa,0xb9998008,
	0x88888910,0x00000889,0xbbbba898,0x80808988,0x08888800,0x0188baaa,0x9880a900,0x09080080,
	0x01888128,0xaa988908,0x80180801,0x88980891,0x2088aa99,0x81801881,0x88000809,0x90000008,
	0xb9980809,0x88188008,0x08888018,0x8008a981,0x08900088,0x88008808,0x80019119,0xb9808808,
	0x88888889,0x98080891,0x1088aa80,0x088998aa,0x99aaaa90,0x99988808,0xb9808899,0xa899999a,
	0xa99a90aa,0x9809b990,0x998a8080,0x08899989,0x9a89a98a,0xbaaa9a08,0x08018818,0x9889aaaa,
	0xaab9aaaa,0xa9008100,0x08180999,0x9a9a9aaa,0xaaa89898,0x98800188,0x88899888,0x009a9881,
	0x01088988,0x00088899,0x98098098,0x80210001,0x01088898,0x89001808,0x81080343,0x08888808,
	0x98890011,0x22433431,0x01445342,0x20001213,0x33446567,0x66410136,0x42455555,0x45564655,
	0x54776630,0x91334524,0x35365434,0x45454444,0x63188012,0x33232322,0x23333332,0x44342208,
	0xa0112122,0x22223332,0x22323132,0x318aa801,0x11111131,0x12111103,0x1213199a,0xa9902100,
	0x10011001,0x21112210,0xa9abbaa8,0x00111110,0x01000809,0x99baabbb,0x00100899,0xaa9999a9,
	0x88008888,0x88080188,0x89bcccdc,0xba9a9980,0x00888008,0x80089ace,0xffffecbd,0xdbcab9a9,
	0x88080008,0xabffffff,0xffabbba9,0x999aa980,0x10088cde,0xfffdca99,0xaa9a9001,0x2a800008,
	0x99cabca8,0x9b8a98a9,0x80900900,0x010188a8,0x90898988,0xa9990981,0x01000010,0x80298988,
	0x9888889a,0x88909801,0x0010a98b,0xa9a80098,0x98899890,0x11030008,0x9a880898,0x00010008,
	0x80001014,0x08809901,0x88090898,0x00000012,0x25340810,0xa0099099,0x8aaaaa90,0x89004444,
	0x00108aaa,0x89aaabeb,0xccbaaabc,0xc8120010,0x0ba99900,0x8898a89a,0xaadffefc,0x11212019,
	0x01133210,0x00809aaa,0xdfff0015,0x55644333,0x42322000,0x8899abdd,0x00265777,0x75324332,
	0x11111118,0x89ac0823,0x13243465,0x55422020,0x80088abb,0x80210130,0x00113321,0x21122000,
	0x98998818,0x0000a9a9,0xa0012132,0x22121189,0x08089900,0x89abb981,0x22223333,0x33888889,
	0xaa9980a8,0xa9811222,0x21313211,0x88999aab,0xa8811880,0x01282222,0x23210890,0x08988808,
	0x88188010,0x01123211,0x10001820,0x18001110,0x00322313,0x22110100,0x22332221,0x12101112,
	0x33332221,0x01112322,0x11111001,0x11013322,0x12100001,0x22233424,0x33343344,0x32111210,
}; //first channel is topmost bit

// Layer: L2
// QuantType: 4bitsym
#define L2_active
#define L2_bitperweight 4
#define L2_incoming_weights 16
#define L2_outgoing_weights 16
const uint32_t L2_weights[] = {
	0x8110e2a1,0x1aa390f1,0x05cb0482,0x20800981,0x162013b8,0x804828b2,0x1b910933,0x200b518b,
	0x9010800a,0x99b81322,0x1b805f90,0x0898c002,0x0d890e00,0x8238944a,0x1900c922,0x122010da,
	0x2a0109d8,0x1db8831a,0x3212019c,0xf22a8003,0x12013088,0xc318b29c,0x80238893,0xb81b0180,
	0x2c11a199,0x0a830328,0xba999034,0x82038a80,0xa2ed2832,0x00993311,0x4a33b808,0x3b0809a8,
}; //first channel is topmost bit

// Layer: L3
// QuantType: 4bitsym
#define L3_active
#define L3_bitperweight 4
#define L3_incoming_weights 16
#define L3_outgoing_weights 10
const uint32_t L3_weights[] = {
	0x9abbb84b,0xc92880bb,0xb1b28ca0,0x08828906,0x0b821919,0xaaa8993a,0xb38a1c8a,0x9912a028,
	0x491a84b8,0x9aaa0b91,0xb8281b89,0x831a899a,0x8acb0109,0x41881cb9,0x9910a995,0x8bb8b118,
	0xc8991baa,0x998932aa,0x310992b8,0xcb98a1cb,
}; //first channel is topmost bit

#endif
