// Automatically generated header file
// Date: 2024-09-09 13:06:07.219326
// Quantized model exported from opt_Cosine_lr0.001_Aug_BitMnist_PerTensor_4bitsym_RMS_width16_16_0_bs128_epochs60.pth
// Generated by exportquant.py

#include <stdint.h>

#ifndef BITNETMCU_MODEL_H
#define BITNETMCU_MODEL_H

// Number of layers
#define NUM_LAYERS 3

// Maximum number of activations per layer
#define MAX_N_ACTIVATIONS 16

// Layer: L1
// QuantType: 4bitsym
#define L1_active
#define L1_bitperweight 4
#define L1_incoming_weights 784
#define L1_outgoing_weights 16
const uint32_t L1_weights[] = {
	0x88000014,0x43459fff,0xdb801210,0x10208191,0x21342440,0xffd8b981,0x01100243,0x89911213,
	0x121bffe9,0xa1200108,0x93438882,0x2322210f,0xfff9b831,0x80889822,0x80221111,0x21affff8,
	0x08101088,0x0a910111,0x232103bf,0xffc80318,0x10881a92,0x00009122,0x229fffc1,0x12110989,
	0x89081810,0x0400238f,0xffa82310,0x80880801,0x81381012,0x111ffc83,0x53110800,0x81110820,
	0x81211219,0xfa945220,0x18224535,0x90188081,0x020ac804,0x44322345,0x76669908,0x90808008,
	0xb902110a,0xa8035777,0x98019880,0x00089880,0x88accfff,0xeb678801,0x88800118,0x888809ac,
	0xbefffff9,0x01002000,0x80018088,0x089998cf,0xffff8888,0x10101180,0x08898888,0x088adfff,
	0xb8180211,0x11808000,0x08098008,0x0dcc1818,0x00110080,0x88090888,0x8818818a,0x01100018,
	0x00000889,0x88980888,0x88918000,0x08119100,0x80001800,0x8090b180,0x90800809,0x09881818,
	0x18008888,0x88989800,0x88118088,0x98808081,0x00882880,0x80109008,0x00888888,0x09088108,
	0x18809999,0x08908000,0x90088008,0x00882829,0x1a808089,0x80988800,0x81011203,0x08900800,
	0x80800888,0x08080009,0x80812800,0x90988988,0x00008898,0x99888a88,0x11189a9a,0x08888888,
	0x88889008,0x00000080,0x80021123,0x33421111,0x0898999a,0xcbb90141,0x34324234,0x44531210,
	0x0088abaa,0x00013454,0x44323342,0x22121100,0x9bbd0026,0x33434222,0x33234321,0x01088899,
	0x89121233,0x23221333,0x42212018,0x088a8823,0x23412222,0x33444343,0x1130120a,0x80031491,
	0x22333423,0x44433222,0x2528aa9a,0x90020100,0x10254344,0x43424428,0xbcfcea9a,0xaaaabb85,
	0x76654332,0x3110dfff,0xefeeffff,0xffd04354,0x22100129,0xffffffff,0xffeddfda,0x01010110,
	0x0218efff,0xffffcb99,0x9aaa9881,0x21222089,0xcccdeebc,0x98090899,0x089a9801,0x02809001,
	0x88880011,0x10890880,0x89811121,0x04223122,0x21101098,0x08818a8a,0x88333354,0x34220100,
	0x98988988,0x899a8803,0x24443410,0x01108998,0x80988809,0x89914542,0x33112090,0x99989988,
	0x88080891,0x53232010,0x11008a9a,0x89988802,0x10124111,0x10121018,0x09988000,0x01021810,
	0x12011808,0x00888899,0x80018008,0x01082801,0x11100889,0x98889981,0x08882021,0x28089810,
	0x08088988,0x99899888,0x08908080,0x88a0a889,0x98999a98,0x803a8119,0x81890098,0x890800a0,
	0x809a8189,0x89ab0008,0x11011818,0x10899000,0x88101888,0x3118988a,0x99088988,0x88880a12,
	0x18081082,0x89888989,0x11980001,0x12109088,0x889bdfff,0xffffffff,0xfddcaaa9,0x99bb889d,
	0xdfffffff,0xfffebaba,0x9899909a,0x91ab8bad,0xdeedcaaa,0x98889888,0x0089820a,0x01019890,
	0x99888888,0x01108888,0x00123112,0x10008089,0x98009888,0x10884081,0x31111110,0x18890189,
	0x09881112,0x30111311,0x11110080,0x10001012,0x00121820,0x08202121,0x10011100,0x00011213,
	0x80280000,0x01010001,0x21121120,0x11130100,0x00101800,0x00020211,0x12103303,0x08118800,
	0x08008980,0x00112223,0x22432021,0x00800198,0x09989880,0x01010222,0x00010000,0x80110808,
	0x88889898,0x98218121,0x14323232,0x22108888,0x89999bb9,0xa0214344,0x34233221,0x00000881,
	0x08aa8880,0x03222445,0x42210100,0x08008110,0x0889a980,0x12233321,0x01000808,0x88819abd,
	0xeeddca90,0x00008888,0x00089109,0x8baedfff,0xfffecbb9,0x99989a88,0x801a098a,0xcedfffff,
	0xfcca9898,0x90880198,0x20000889,0xbaaaa999,0x98008088,0x00082121,0x31111100,0x88888999,
	0x8989808a,0x81811021,0x10080898,0x89899909,0x98080200,0x00000808,0x98988898,0x8a890980,
	0x11101001,0x10100108,0x89909098,0xaca81120,0x81008000,0x10801010,0x08198bb8,0x11000000,
	0x80008000,0x818080bb,0xaac81110,0x09090808,0x08089998,0x89ab9900,0x089999cb,0xcdeccbba,
	0x99889089,0x8808099a,0xbdffffdb,0x98a80989,0x89102108,0x89a9cece,0xdeb99998,0x09999aa9,
	0x220a0899,0xaba888aa,0x99a99989,0xa0808281,0x11008808,0x9ab9aba9,0x99980998,0x00219222,
	0x01900aab,0x999a9898,0x80808180,0x33222310,0x33188981,0x01008888,0x88813545,0x73535332,
	0x11001110,0x00080980,0x65656455,0x54544121,0x11111000,0x90884344,0x64555766,0x53311100,
	0x08888808,0x22332432,0x42221080,0x80008891,0x88081000,0x10099abc,0xdcca9008,0x00001009,
	0x1bacdfff,0xfffffdb9,0x90001011,0x1280ceff,0xfffffffc,0xa9880008,0x88880812,0xffffffff,
	0xeb988800,0x00188199,0x9000ffff,0xfffa1101,0x00010100,0x00198812,0xfffffa11,0x01001110,
	0x00000800,0x0802ddcb,0x11201101,0x11080080,0x08082908,0x80101100,0x98801100,0x00100809,
	0x19902230,0x10000000,0x00100880,0x8808009a,0x21010000,0x00880800,0x20011008,0x00801011,
	0x10888000,0x00000000,0x08280202,0x42288101,0x00008880,0x80081011,0x10224210,0x20008890,
	0x88880008,0x88834323,0x11282018,0x00808000,0x88811010,0x12430101,0x11811101,0x10000100,
	0x08080342,0x21020981,0x18108800,0x09090918,0x11002310,0x10000000,0x8898999a,0xa0920990,
	0x08091124,0x34222181,0x80211111,0x44308808,0x24463232,0x21111000,0x01213423,0x81332323,
	0x33232112,0x00211110,0x1242a013,0x02202222,0x11011011,0x10123112,0x80200021,0x12212101,
	0x20100108,0x22130810,0x01011102,0x11021012,0x00101102,0x10008108,0x11111101,0x11111011,
	0x10028892,0x81001000,0x10010100,0x11001001,0x11801018,0x10110001,0x00080101,0x11800198,
	0xa0010010,0x18000088,0x80210211,0x81b10808,0x00002222,0x11000088,0x20019ce8,0x90880012,
	0x33322221,0x18809181,0xadfd9808,0x01121332,0x12121009,0x88908fff,0xdcb88081,0x23221112,
	0x0189988a,0x89fffffd,0xbca01211,0x01888891,0x829a118e,0xcfffffff,0xc9808999,0x8801811a,
	0x22109acf,0xffffffdb,0x99808011,0x09095822,0x20889cff,0xffdca980,0x01811989,0x31143131,
	0x21189ab9,0xa8908181,0x088a8202,0x13322221,0x1899a889,0x08881889,0x80811011,0x11110198,
	0x89998819,0x08080188,0x80001888,0x88098998,0x9898989b,0x8b08a990,0x90088888,0x89999888,
	0x9910ab88,0x09898980,0x00098a09,0x99899900,0x9aa9a098,0x989a9a8a,0x009aa889,0x9918a9aa,
	0xb998a888,0x908a99a9,0x002821a8,0x89cd8aba,0xa9098908,0x0989bc9a,0x18a89a89,0xababbbcd,
	0xdcbaabbf,0xc09a8089,0x009a89bc,0x98abb9aa,0xaaba9800,0x02109a89,0x09981111,0x21088888,
	0x80010331,0x088a0980,0x10010189,0x98080000,0x13428893,0x00000001,0x10908800,0x10002253,
	0x12a00001,0x02101080,0x01811013,0x33442011,0x11112212,0x21881111,0x11122344,0x00321221,
	0x23322002,0x22212233,0x42238124,0x13225444,0x31033232,0x23253232,0x10231334,0x43444125,
	0x33434443,0x22348012,0x33344455,0x43354332,0x22323224,0x90103211,0x33232123,0x01023212,
	0x3335c810,0x80100101,0x09a88980,0x00113254,0x8a898800,0x10009aa9,0x98088a99,0x08019998,
	0x88000899,0xaaa999a9,0x8a9aa008,0x88008108,0x9989a99a,0x98998890,0x91990011,0x1998809a,
	0xaaa98988,0x18099ab9,0x81212100,0x108089a9,0x88988889,0xaaab8021,0x33311100,0x09988088,
	0x999a9a99,0x98181222,0x21211080,0x98999ba9,0x9b9da888,0x08001122,0x21280999,0x8a888989,
	0xa1288008,0x88000100,0x08988808,0x01889808,0x98900080,0x08000080,0x88080122,0x98018880,
	0x08000808,0x89899800,0x33128898,0x08899988,0x88989889,0x99800111,0x99099808,0x89988880,
	0x88900001,0x1131c998,0x08808880,0x80018111,0x08101101,0x9c9ba999,0x88889988,0x88889900,
	0x01119aba,0xababbb9a,0xbabbcb9b,0xb99a8108,0x808090ab,0x9a124324,0x4bfd8115,0x4219089c,
	0xdbc98142,0x4438cffd,0x80133101,0x89baedaa,0x8112312a,0xfff90132,0x433199cf,0xfeb98121,
	0x000dfff8,0x81212312,0x9aafe098,0x0210118f,0xffc01131,0x21119bef,0xf9808141,0x8aafff10,
	0x88212181,0x0cdad088,0x812189bf,0xfd100122,0x21281bbd,0xba988032,0x0adffb10,0x01151011,
	0x898b0800,0x811429ef,0xe1213222,0x2018980a,0x02002014,0x20ff9121,0x13001889,0xa8192090,
	0x811430ff,0x00121010,0x089b0a18,0x11800113,0x40eb8102,0x108889ac,0x21110000,0x101239b9,
	0x00218088,0x800a1800,0x01010001,0x19ba0110,0x089bb088,0x08808108,0x00001899,0x00808888,
	0x19908188,0xa9808880,0x08900890,0x88000990,0x91988880,0x80001800,0x88088000,0x88a21aa8,
	0x08899800,0x08000808,0x911898aa,0x80911890,0x00801808,0x00889a89,0x81188282,0x08800881,
	0x01009999,0x88809801,0x82190090,0x88880080,0x80080000,0x08000200,0x10001808,0x00000080,
	0x01080808,0x00182101,0x90800098,0x88099989,0x900a8900,0x88080808,0x88888881,0x80800200,
	0x18880818,0x08008100,0x1a000a92,0x92090898,0x89909880,0x80800888,0xa0081808,0x88808888,
	0x88898898,0x00088800,0x00190008,0x08000808,0x80089001,0x11201989,0x80808808,0x80088888,
	0x00008880,0x00880808,0x88008088,0x08088088,0x80088000,0x00000080,0x08888888,0x08880800,
	0x08080880,0x88000888,0x80880080,0x88088800,0x00080888,0x08888888,0x88888808,0x08088880,
	0x00808088,0x00088888,0x80008088,0x80000000,0x88088888,0x88888888,0x08880808,0x08880880,
	0x88888808,0x80808088,0x08008088,0x08089890,0x80888888,0x88880088,0x00888808,0x88880888,
	0x88808808,0x00000880,0x88888888,0x80888800,0x88888888,0x00888888,0x88880088,0x88880888,
	0x80880088,0x88880880,0x88888880,0x80888888,0x80088888,0x88808888,0x80880000,0x80080888,
	0x80808808,0x88888008,0x08080800,0x88888080,0x88888888,0x08888088,0x00008088,0x88888088,
	0x88808008,0x88808808,0x88088888,0x88088808,0x88008808,0x80000000,0x88888888,0x88080800,
	0x08888088,0x80888988,0x08888880,0x80808888,0x88088088,0x08888888,0x80808808,0x88808000,
	0x80088808,0x88880880,0x88808080,0x88880888,0x88888888,0x08888080,0x00088080,0x88888880,
	0x80080880,0x80008008,0x80800088,0x88880880,0x00888080,0x00888880,0x80080888,0x88808008,
	0x08008088,0x80880088,0x88888880,0x88880088,0x08800808,0x08000808,0x00000888,0x88888800,
	0x08899800,0x00024365,0x54431201,0x0880088a,0xaaab9913,0x13233443,0x30900089,0x888cdefd,
	0xefffeabc,0x0030109a,0x0aaa9ab0,0xffffffff,0xffffffd1,0x809818a9,0x8befffff,0xffffffff,
	0xffec9ba9,0xa98b9dff,0xffffffff,0xffffffff,0xeebbabcc,0xddffffff,0xffffffff,0xcbbacbda,
	0xabbacdeb,0xdfedccce,0xbddbaaaa,0x99998899,0x0aa89991,0xa9aabcca,0x98089098,0x80881390,
	0x80180081,0x08a91018,0x11110091,0x42222022,0x13333401,0x31322110,0x31113542,0x12112434,
	0x66432212,0x10800333,0x33442223,0x33333431,0x21000810,0x82535333,0x11028011,0x00002118,
	0x08108463,0x32208889,0x98088990,0x08980988,0x01232200,0x99089899,0x88a98980,0x00900881,
	0x30900801,0x00189880,0x08889001,0x99898200,0x00101018,0x88980808,0x000111a0,0x10101101,
	0x11010008,0x88801020,0xa0910100,0x11118098,0x89000010,0x11110212,0x80180808,0x08890000,
	0x81111112,0x0400980a,0x90180088,0x88000010,0x11010822,0x99aa998a,0x98988999,0x88888090,
	0x02008899,0x99998009,0x88888880,0x88810881,0x10800008,0x88808008,0x18890988,0x21240000,
	0x08088918,0x98890898,0x00882115,0x11020088,0x00800080,0x88011044,0x32230021,0x22222222,
	0x22233343,0x34332332,0x8008889a,0xeeffdca0,0x08aa99a8,0x88108808,0x09bbdcca,0x90108089,
	0x09998010,0x01800bba,0xaaba9800,0x00980800,0x98020088,0x99a99b89,0x08821080,0x88181012,
	0x008a0c9a,0x98008102,0x00000011,0x1423800a,0xb9a88080,0x00211181,0x01223346,0x8a890a98,
	0x80111110,0x01011223,0x65569a08,0x98900011,0x11221111,0x22534667,0x8aabba08,0x08012121,
	0x11133445,0x75649898,0x09989000,0x00110810,0x100828a0,0x998a0980,0x88800089,0xdeffffff,
	0xffff9a8a,0x89989888,0x0889adff,0xffffffff,0xaa89a988,0x00080899,0x9aaeffff,0xffffa998,
	0x88888881,0x10188989,0x9fffffff,0xa0111000,0x00110808,0x0a9000be,0xffff9020,0x01000108,
	0x80088908,0x80899cff,0xa0101101,0x11808808,0x8880001a,0x99df8001,0x11100101,0x00000800,
	0x88111a80,0x88800101,0x00880818,0x08880889,0x18090818,0x88080808,0x00088808,0x00001088,
	0x90198000,0x08888800,0x00008880,0x1192a009,0x10990888,0x88000000,0x10190180,0x90090990,
	0x88008818,0x88000092,0x24200080,0x80889888,0x88800889,0x00080210,0x80090988,0x88080080,
	0x00008889,0x10808901,0x01818100,0x10008122,0x01223000,0x80088888,0x80000880,0x10011219,
	0x00100818,0x80080080,0x10100101,0x11002010,0x81012457,0x77777775,0x54332110,0x10220813,
	0x33665676,0x76431211,0x11112020,0x08121213,0x23344321,0x21211112,0x22810010,0x11111222,
	0x21810081,0x11113210,0x88101100,0x00088008,0x80008080,0x02209310,0x10109018,0x08800888,
	0x89880130,0x98012100,0x080188a8,0x09a99980,0x88008128,0x28000881,0x898900a9,0x98a91191,
	0x90820000,0x00108880,0x99990888,0x88010a00,0x09800801,0x00009999,0x80808001,0x88889008,
	0x00111121,0x00980008,0x103800a9,0x09888000,0x21118080,0x08023320,0x90800888,0x10121111,
	0x18011121,0x33348001,0x00201102,0x12101001,0x21244474,0x10111211,0x00111200,0x11102032,
	0x31543133,0x11111200,0x10111102,0x21212422,0x33142011,0x02011111,0x11122112,0x35412331,
	0x11200100,0x00110210,0x22120303,0x21113201,0x10080012,0x11230212,0x43980890,0x21111211,
	0x11120210,0x10100a9b,0x9cba9081,0x10108001,0x088888b8,0x9dcfceba,0xca899988,0x999a9aaa,
	0xcdcfffff,0xaedccbaa,0xaaabaabb,0xbccdefff,0xffffadff,0xefdcbbcb,0xcddcefff,0xffffffff,
	0xbdffffff,0xffffffff,0xffffffff,0xfffeceff,0xfffffffd,0xfffeffff,0xfffffffd,0xacdfffff,
	0xfffdeeff,0xffffffff,0xffdb99bc,0xefffffff,0xffffffff,0xfffffccb,0x0999bab8,0x99998800,
	0x00100898,0x8ab880ab,0xa0918111,0x12211101,0x08808088,0xaaa88988,0x80000021,0x11008088,
	0x8811898a,0x98980880,0x00111111,0x01010112,0x99890888,0x89899888,0x80080088,0x10128888,
	0x08889999,0x88000080,0x88080022,0xa8089088,0x8898a880,0x08000888,0x10129988,0x19888999,
	0xa9a90088,0x00800082,0x80800011,0x0808a998,0x08010118,0x01019911,0x80100200,0x08888808,
	0x00888819,0x88010011,0x10100080,0x00000001,0x80808018,0x10808008,0x00010102,0x21222131,
	0x90800088,0x88080111,0x01012245,0x47559880,0x19000112,0x22222111,0x21333757,0xa0800221,
	0x11233322,0x12011000,0x1347a080,0x18102323,0x23321110,0x09000104,0xb0810013,0x13244332,
	0x10000888,0x8891a880,0x20212212,0x23100088,0x08018b9a,0x90180188,0x80000008,0x09080088,
	0x888a9900,0x88988889,0x89808011,0x0121899a,0x98999899,0x89aa9988,0x01121198,0x00889888,
	0x80888989,0x98800100,0x0808999b,0x90989909,0x89989898,0x88880008,0x99899800,0x99898999,
	0x98800011,0x08801100,0xb9000898,0x80000080,0x10812108,0x81018801,0x98088800,0x80080018,
	0x0080a181,0x80000100,0x00101000,0x00001103,0x23008080,0x80011112,0x11222223,0x33220322,
	0x80199999,0x9aacecfb,0xbbba8998,0x08108889,0xaaaaa8aa,0xbabbaaa9,0x99801809,0x881aba88,
	0x08889808,0x00001090,0x08119888,0x9a980000,0x00888000,0x80001a01,0x99888980,0x01000808,
	0x00888080,0xa090a980,0x88888808,0x08080100,0x00809081,0xc8111980,0x08180800,0x00000881,
	0x82809898,0x81980808,0x88808908,0x88000a11,0xa9888880,0x98088880,0x00808000,0x01019088,
	0x88090888,0x88909888,0x00810000,0x88880808,0x88898998,0x88800101,0x20018008,0x198998a8,
	0x88999990,0x88808122,0x88889899,0x98888989,0xa8998890,0x0012a880,0x88880800,0x0089a9a9,
	0x9999a113,0x9888a909,0x80800888,0xa999a9a9,0x80029a90,0x88000010,0x00899a9a,0x99980011,
	0x8989a880,0x01010889,0x99a99900,0x28801008,0x80980880,0x0099a980,0x08180002,0x22201800,
	0x800080a9,0x88881021,0x80024442,0x01100808,0x89880122,0x23344532,0x66554330,0x12012223,
	0x34455555,0x56533545,0x43334242,0x44554655,0x54554556,0x33124434,0x33244333,0x43433334,
	0x45332231,0x33323222,0x22323324,0x34232111,0x10832021,0x23122322,0x22222132,0x42421010,
	0x00011121,0x11112111,0x11933128,0x00801111,0x00010101,0x00111111,0x01101110,0x00001001,
	0x00000080,0x988a81a9,0x80988abb,0x988bcbcb,0x90189000,0x81188818,0x89aa9998,0x99808880,
	0x80808008,0x088a88a1,0x8989b880,0x80099880,0x108999b9,0x89aa9a9b,0x88808889,0x80801111,
	0x888829e9,0x98b9ba98,0x98098911,0x00118aa0,0x8b809b89,0x99089002,0x88080900,0x9a820190,
	0x099aa081,0x99808891,0x9201bbc1,0x09808981,0x81090888,0x88800801,0x9aa01809,0x98889808,
	0x09898808,0x12888bb8,0x08a81908,0x81099999,0x80989a09,0xbaa8a099,0x88888889,0x88088888,
	0x8009a999,0xa8989a88,0x809b9011,0x21130111,0x98088089,0x9081188a,0xa1123355,0x44432228,
	0x01101212,0x12acc112,0x12213453,0x43331018,0x000020af,0xb9189881,0x23424351,0x00811120,
	0x18bfc089,0x00122352,0x12401200,0x011000ef,0xa8800023,0x40131110,0x20101880,0x18ffa002,
	0x41512242,0x00302118,0x10899ae8,0x01322242,0x01289110,0x18100888,0x9cb92333,0x32212200,
	0x10111100,0x01909811,0x33232111,0x28082820,0x11100808,0x00132211,0x0119889a,0x11211180,
	0x08911211,0x101100a1,0x189a0000,0x01080880,0x01022110,0x01890aa9,0x02010898,0x00111111,
	0x12118899,0x98ca8888,0x80888100,0x10000008,0x00a99a88,0x00988980,0x01100000,0x8088a88a,
	0x9a800980,0x89800000,0x00000000,0x08980908,0x00000312,0x54232089,0x99a8b9a9,0xb9801182,
	0x23324432,0x2188aaaa,0xaaaad800,0x08222242,0x22311088,0x9babaaab,0xb0992113,0x41121110,
	0x02008aba,0xbaaad808,0x18422310,0x11101108,0x9abbcacb,0xb9018421,0x23221001,0x010119bc,
	0xccdfb002,0x23232012,0x12121120,0x199bcfef,0xd0253122,0x20080022,0x133018ba,0xdfffb035,
	0x21102988,0x00012354,0x10aaffff,0xa1352119,0x8080aa80,0x147720af,0xfffbb825,0x1189a989,
	0xba981375,0x10cfffbb,0x02322098,0x89a89900,0x324319cf,0xfab9c913,0x32008080,0x88012023,
	0x89dfd18d,0x84093301,0x88098802,0x122288cc,0xaba01771,0x01880188,0x81001020,0x0bc88099,
	0x302d8808,0x00100880,0x80189aba,0x8801890a,0x29001001,0x0180080a,0x9ba90810,0x08201200,
	0x81088088,0x0809aa98,0x8902809c,0x10010110,0x00899808,0x98000120,0x00921181,0x00088889,
	0x81988081,0x1880810a,0x22908018,0x90008010,0x0010080a,0x13991101,0x88800808,0x89880880,
	0x00a980a9,0x20098998,0x0809998a,0x8a080889,0x88aa0000,0x08988988,0x89a9988a,0x80b98b29,
	0x81188888,0x90988998,0x99a8b09b,0xc0a90109,0x00808890,0x09099001,0x800bc888,0x00001008,
	0x99888898,0x81180a89,0xa0880202,0x81898998,0x98808801,0x09009000,0x08811134,0x12009a9a,
	0x98809a89,0xa8800218,0x92211108,0xaa999998,0x88a9a988,0x08280280,0x0180089a,0x98998990,
	0x9980001b,0x8888889a,0x8a998098,0x89988989,0x002200aa,0x90090899,0x88900900,0x909a1380,
	0x88189808,0x89988888,0x88910910,0x10980a98,0x898a89a0,0x89098891,0x0208080a,0x8999aa99,
	0xa9a90889,0x90081810,0x800a0aa9,0xa9a99a98,0x88800000,0xa2000099,0xa89aa999,0xa9998889,
	0x99998a89,0x28a9bb88,0x98899999,0x99880999,0x88018ab9,0x999b9999,0x99aaa9a9,0xa9aa9990,
	0xa9aaaaa8,0x1999abaa,0xbaa9acac,0xa88a1108,0x8988888a,0xaaa9aaaa,0x99aba0ba,0x32223900,
	0x88888889,0x09888888,0xca0b4455,0x54312109,0x98088081,0x21809188,0x65564544,0x44321001,
	0x01123121,0x13232653,0x65666655,0x43322133,0x22122323,0x34234645,0x55545442,0x23232234,
	0x51362300,0x41232334,0x33333231,0x23232235,0x2a819000,0x18801112,0x32332222,0x4146090a,
	0x98a88888,0x88101112,0x18223034,0x9a8c9989,0x99900088,0x01001281,0x1836aab8,0x98998888,
	0x89808900,0x81235254,0xaaa9ac99,0x99a89999,0x80980000,0x46629081,0xa8999889,0x98998988,
	0x88033454,0x8a800118,0x80898080,0x98082023,0x44208880,0x18021001,0x00101111,0x22331898,
}; //first channel is topmost bit

// Layer: L2
// QuantType: 4bitsym
#define L2_active
#define L2_bitperweight 4
#define L2_incoming_weights 16
#define L2_outgoing_weights 16
const uint32_t L2_weights[] = {
	0x89293008,0x8a02d80a,0x9208b400,0x3c0aa31a,0xb21022c0,0x29e0d210,0x4cd88928,0xb6303881,
	0x05959b18,0x08398930,0xa0d0d198,0x3b0b3110,0x98932108,0x41181a8a,0x20eb8388,0x8a3a9288,
	0xc22011c8,0x1c022a21,0x39893038,0x89b1c233,0x22841b28,0x2190023b,0x1019da20,0xca308003,
	0x98228190,0x3190c213,0x20b98238,0xa0938a3e,0x39484818,0x040b1898,0x3b8b0198,0x041311c8,
}; //first channel is topmost bit

// Layer: L3
// QuantType: 4bitsym
#define L3_active
#define L3_bitperweight 4
#define L3_incoming_weights 16
#define L3_outgoing_weights 10
const uint32_t L3_weights[] = {
	0xa2aba2b2,0x8d8098c2,0xaa912899,0xb22aa399,0x8a9a330a,0x0aa18a9a,0xaa8a8a02,0x28298b1b,
	0x3aa9c09a,0x94928898,0xa8888a01,0x998a8b32,0x28b4a8c0,0xac92d9a1,0x833b190b,0xa8192999,
	0xa9999b19,0x19aaa2b1,0x1b3ac8a8,0x119a1999,
}; //first channel is topmost bit

#endif
