// Automatically generated header file
// Date: 2024-09-08 13:57:39.107621
// Quantized model exported from opt_Cosine_lr0.001_Aug_BitMnist_PerTensor_4bitsym_RMS_width16_16_0_bs128_epochs60.pth
// Generated by exportquant.py

#include <stdint.h>

#ifndef BITNETMCU_MODEL_H
#define BITNETMCU_MODEL_H

// Number of layers
#define NUM_LAYERS 3

// Maximum number of activations per layer
#define MAX_N_ACTIVATIONS 16

// Layer: L1
// QuantType: 4bitsym
#define L1_active
#define L1_bitperweight 4
#define L1_incoming_weights 784
#define L1_outgoing_weights 16
const uint32_t L1_weights[] = {
	0x11111111,0x08999998,0x88000111,0x21211111,0x10888aab,0xaa808988,0x88801111,0x12110889,
	0xaaa99080,0x00888808,0x00212108,0x89988888,0x80110111,0x00100811,0x10089a98,0x88808081,
	0x10100011,0x10222108,0xa9990808,0x80110110,0x11122223,0x100a98b8,0x89001810,0x11121023,
	0x35341098,0xa8980809,0x08211122,0x22243433,0x0888a989,0x88800002,0x23434536,0x51121898,
	0x89889889,0xaaacdeff,0xffffecb9,0x088a8900,0x00899acf,0xffffffff,0xfffb0888,0x00808008,
	0x80098fff,0xfffffffc,0x10888000,0x11008080,0x012bffff,0xfffd1211,0x31118080,0x10008803,
	0x339efffd,0x11211010,0x08000008,0x08890034,0x09da0000,0x88888088,0x08880010,0x188920a9,
	0x80808890,0x00008001,0x01800809,0x00998880,0x88888880,0x80000010,0x10288880,0x00800000,
	0x00088801,0x00080809,0x28001080,0x88181080,0x00000000,0x08802011,0x01088008,0x08018000,
	0x00010018,0x20210008,0x20188000,0x01110100,0x00101101,0x10891998,0x00800800,0x01000811,
	0x13111100,0x08190808,0x08080000,0x10810211,0x10008808,0x80081081,0x90181090,0x80121100,
	0x88800008,0x00008000,0x02110111,0x22121108,0x80088080,0x10800110,0x01212111,0x10010011,
	0x11100000,0x00011111,0x22232343,0x44565464,0x42322211,0x22322223,0x33344343,0x44133100,
	0x10112333,0x22333322,0x18111111,0x11210008,0x21233322,0x21100800,0x13001089,0x88888112,
	0x32221809,0x01100011,0x01111808,0x88823320,0x89188880,0x80888888,0x90988081,0x22180880,
	0x10818108,0x08080809,0x89802100,0x1a800191,0x00808080,0x809b89a1,0x21088999,0x80088010,
	0x00880098,0x88022210,0x01908811,0x11211001,0x21001111,0x22111221,0x11222232,0x12180201,
	0x21122201,0x00101080,0x80210111,0x22143122,0x21101210,0x10998908,0x11001224,0x30122201,
	0x01100909,0x88080002,0x01133122,0x13221211,0x00088080,0x09102240,0x30323222,0x12000000,
	0x82988001,0x21101123,0x33310210,0x01122020,0x01100088,0x90112210,0x08800121,0x23300100,
	0x1181b001,0x21198988,0x00111132,0x01011080,0x8aa03289,0xaaa09988,0x88110001,0x8a9ddca0,
	0x219acbca,0xaa998880,0x8a9effff,0xfeb0118a,0xddcdbbac,0xcceddfff,0xfffffda8,0x118acdff,
	0xffffffff,0xffffffff,0xfa902189,0xbbefffff,0xffffffff,0xfffec981,0x21189ace,0xffffffff,
	0xffffedaa,0x80122210,0x0989abcc,0xecfddbba,0xa8080122,0x33322101,0x00808000,0x80009011,
	0x22223232,0x22122222,0x11111221,0x11122232,0x88888888,0x00080808,0x88880880,0x88888880,
	0x80988001,0x08808880,0x00800800,0x88808888,0x80000008,0x01112080,0x88000800,0x88088000,
	0x0098a888,0x08010100,0x00008889,0x12080008,0x800028a1,0x80000880,0x88080010,0x80888980,
	0x11190980,0x08800899,0x80088808,0x99180890,0x19008889,0x98998890,0x88898888,0x81099800,
	0x80988899,0x98808001,0x01021102,0x02128898,0x80909802,0x12121232,0x03113323,0x9888a8aa,
	0x9a888111,0x00000002,0x55538888,0x9899ab9a,0x9a98aa88,0x12355644,0x89089988,0x9a89a998,
	0xbcdc98a0,0x02228889,0x90880008,0x080abcef,0xfffffffa,0x99801000,0x00001189,0xabcfffff,
	0xfffe9801,0x20020012,0x21899b0b,0xfffffffe,0x98020201,0x13321119,0x9a89cfff,0xfffd9002,
	0x02110222,0x210aabc9,0x8efffffd,0x80110010,0x01122109,0xa88911bf,0xfffb8110,0x10008100,
	0x12118898,0x9288cec9,0x81111010,0x18002120,0x10898010,0x9b990011,0x81881808,0x88810100,
	0x98118988,0x01221200,0x01808801,0x11433002,0x21000122,0x11001101,0x20012212,0x01244210,
	0x00111001,0x08808100,0x02222436,0x53188801,0x02102201,0x11001202,0x35433200,0x88001011,
	0x10011000,0x00013222,0x10888880,0x00010010,0x00111001,0x11000888,0x899999ab,0xcccddddc,
	0xcbbbaa99,0x98899999,0x9accddec,0xbbcbbbba,0xa9998988,0x999aabcc,0xba880808,0x88899999,
	0x899998a9,0xaaa98011,0x01100088,0x89088999,0x99888802,0x12111222,0x11201009,0x80089998,
	0x01111112,0x22210101,0x11088289,0x88881112,0x32111233,0x23222101,0x90889800,0x12103112,
	0x24253231,0x22100000,0x89012110,0x21222343,0x42432210,0x08109802,0x01211222,0x23321200,
	0x10800118,0x88810010,0x18089808,0x00322232,0x38088808,0x0100088a,0xaa99a998,0x12334108,
	0x98881288,0x989aaa88,0x90988081,0x20089899,0x009880a9,0x08888801,0x00218110,0x99998880,
	0x08800019,0x98001101,0x00009999,0x80808010,0x01188088,0x88080888,0x9a988000,0x11111118,
	0x08898a99,0x99999988,0x08810200,0x10089999,0x9a992899,0x98088089,0x98808988,0x9998898a,
	0x88898810,0x88188899,0x90809099,0x89899008,0x80221110,0x00001101,0x88801800,0x00108002,
	0x20001100,0x88801108,0x89111118,0x90023121,0x11010010,0x10001122,0x31089802,0x30011000,
	0x11102122,0x11232008,0x99801122,0x20111100,0x18111121,0x00998980,0x02213321,0x12101322,
	0x31880888,0x88980010,0x81111010,0x10011880,0x88998898,0x98888888,0x88888899,0x88899999,
	0x10000800,0x00010888,0x89088080,0x00000000,0x00001111,0x12111000,0x88010800,0x00000001,
	0x22343311,0x01108080,0x00010008,0x88888998,0x21330110,0x08800800,0x1009abde,0xffffffc9,
	0x80000088,0x0000009a,0xdfffffff,0xfffffecd,0xcbbaaa80,0x00a9dfff,0xffffffff,0xffcdd9ba,
	0xbab808aa,0xbffdffff,0xffffdba9,0xa9aa98a0,0x08ab9901,0x099ba9a9,0x80008088,0x88910080,
	0x13111122,0x31221001,0x01190912,0x12221231,0x02343444,0x31000001,0x01212234,0x33322133,
	0x35532111,0x01100112,0x22342002,0x20000122,0x21111030,0x01222311,0x41889889,0x99000008,
	0x12322222,0x22198a89,0x88008899,0x80800123,0x23112110,0x98188088,0x8a999801,0x10013311,
	0x21802011,0x10899988,0x80810800,0x00102101,0x11201010,0x80889880,0x10121011,0x10020011,
	0x08080008,0x88880889,0x81111108,0x18888808,0x80000000,0x80980008,0x80990988,0x08088000,
	0x01888100,0x80800888,0x88180081,0x88988008,0x80889800,0x00899800,0x00881880,0x80008889,
	0x08011008,0x08801008,0x00000000,0x08801021,0x00100889,0x88808880,0x00800801,0x21110111,
	0x00118800,0x80190990,0x80101000,0x00111180,0x00808898,0xa8888111,0x00000111,0x12231112,
	0x12120212,0x10110118,0x80888000,0x00010080,0x88888800,0x08800088,0x88801123,0x33321210,
	0x10000000,0x00888802,0x23434422,0x31110010,0x00088888,0x88224332,0x53332222,0x32121011,
	0x08888121,0x21010212,0x11111221,0x21110888,0x82120189,0x81210210,0x00200111,0x99998008,
	0x09880100,0x98900801,0x00018898,0x08a99aaa,0x8a818011,0x80012310,0x8980999a,0x88a889a8,
	0x80001122,0x21128888,0x89108800,0x80111111,0x02123310,0x88880808,0x10025464,0x32010801,
	0x00008899,0x8a980802,0x77543522,0x10010119,0x88999988,0x88813653,0x12231020,0x19888898,
	0x99aaa9dc,0x02442101,0x10001009,0x8980899a,0xbaacb811,0x11080902,0x02889801,0x120088ad,
	0xcba89080,0x08210209,0x98233118,0x1aaadca9,0x99080101,0x00099022,0x4121100a,0xbba98888,
	0x81010089,0x80121020,0x01909999,0x99990990,0x098a9801,0x00080988,0x89899088,0x808808aa,
	0x999a8889,0x00809008,0x81801088,0x09aa9989,0x98281081,0x00800080,0x009baaa9,0x88888908,
	0x10010108,0x0099998a,0xcb998880,0x09980a09,0x88089890,0x099bdb98,0x88808900,0x00088998,
	0x00808bab,0xbb989898,0x98889888,0x80019889,0xabcba998,0x88888189,0x98080999,0x9bcddccb,
	0x98888809,0x999aabde,0xffffffed,0xdaaa8880,0x00000008,0x01011010,0x11100000,0x00001000,
	0x00000088,0x98088808,0x08000000,0x11001000,0x08988089,0x98808001,0x10000001,0x11008000,
	0x00100889,0x98980010,0x00112132,0x18188080,0x80221188,0x00810012,0x21213200,0x00808088,
	0x10088800,0x00101122,0x20818008,0x00001108,0x88010111,0x11100180,0x01000111,0x10188802,
	0x10210201,0x11800001,0x02221010,0x88800111,0x81011112,0x21121310,0x21099a00,0x00111011,
	0x11111123,0x11111011,0x12100110,0x12112000,0x10321110,0x11221108,0x01002001,0x00189022,
	0x22121132,0x23001111,0x31211008,0x81122323,0x43232100,0x11023312,0x01102312,0x12233333,
	0x22001001,0x22102111,0x12220322,0x22230321,0x08801133,0x32233243,0x22121113,0x122108aa,
	0x08801112,0x23331031,0x14020208,0x9acbcaac,0xabba9800,0x008110b0,0x09989bdb,0xedfdeffd,
	0xfcbaa9aa,0xbbfdbcb9,0x9bccddec,0xdeddfeee,0xddeffffd,0xccc889ab,0x9aabbabc,0xcdeedfee,
	0xfddccca9,0x8999898a,0x9baabbcb,0xcbccbcad,0xcca88889,0x988889a9,0xa9aa9aa8,0xbaacb900,
	0x00898008,0x88999aab,0xaaa99099,0xa9000888,0x808080a8,0x980a898a,0x99898080,0x01889989,
	0x98098998,0xa9999999,0x01100088,0x89888988,0x89889988,0x88801000,0xaaa9a99a,0xbbaa9888,
	0x0008889a,0x9a99aaaa,0xaaaa9880,0x11110110,0x000899aa,0x9aaaa998,0x08008088,0x88800110,
	0x0899a9a9,0x80001108,0x08099800,0x00000089,0xa9a80112,0x00801112,0x12111112,0x00099888,
	0x11114210,0x11110011,0x00000209,0xa8018442,0x22211222,0x12221311,0x80089011,0x12323344,
	0x54554432,0x22000018,0x80121222,0x43454365,0x53323223,0x32100022,0x24223335,0x45754554,
	0x33223430,0x88211288,0x12131333,0x32111101,0x02208801,0x9a898990,0x99b08118,0x01001010,
	0x98080019,0x9abcddfa,0xb9011010,0x00089800,0x1008999d,0xcdddbba8,0x08128018,0xa0210008,
	0x899cddbb,0xba880112,0x20109818,0x30008b9a,0xacbac989,0x01884180,0x80181888,0x89aabbca,
	0xbaa88800,0x18889900,0x01888889,0x999898a9,0x89889808,0x990a9980,0x01108088,0x98999989,
	0xa988998b,0xbaa88888,0x1009a999,0xaaaa89a9,0xaa89a08a,0x08980088,0x8abacaba,0xa898a980,
	0x899b9988,0x088900a9,0x89ab8889,0xa9018009,0x00090011,0x0889a998,0x80989800,0x08128808,
	0x09888888,0x99081098,0xa9880111,0x80809000,0x81281089,0x999a9988,0x13002212,0x30820011,
	0x01089999,0xa9998989,0x00889000,0x20028999,0x99aaa99a,0xa9999a9a,0x9aabaa99,0xa9a9999a,
	0x88808888,0x99999999,0x9a999988,0x80008080,0x889a99ab,0xaaaaaaa9,0x99889888,0x8889999a,
	0xbbbcbbba,0x99998998,0x80880088,0x88aabcaa,0xa9988880,0x98880880,0x089899a9,0x99088809,
	0x80818000,0x80880899,0x80810180,0x89099808,0x08001800,0x88081001,0x18000010,0x00081880,
	0x10010998,0x80211021,0x01221110,0x01891000,0x88900800,0x81112220,0x20818910,0x80110881,
	0x18112182,0x11322212,0x21800090,0x08930008,0x08008100,0x80180091,0x08000881,0x0889a9a9,
	0xaba98800,0x88802001,0x00001909,0x9898b919,0xa8811102,0x81110801,0x09999888,0x80088980,
	0x08800881,0x09802810,0x08800010,0x808a89ba,0x90088980,0x24432111,0x00189989,0x89a81800,
	0x0aa80101,0x22232088,0x09a8a901,0x32108abb,0xb0021112,0x33109909,0x80122310,0x89bddbb9,
	0xc9aaa889,0x9a802112,0x111089cd,0xfeffffff,0xfffc9908,0x11000218,0x88abdeff,0xffffffea,
	0x90112001,0x21101088,0x9bcdffed,0xb0101828,0x10112100,0x11322221,0x25363201,0x00080022,
	0x22081123,0x54554211,0x11211101,0x11001000,0x12255344,0x44533231,0x11011111,0x09801021,
	0x33324343,0x33123323,0x11808888,0x01112121,0x21112121,0x21200088,0x98888010,0x12222111,
	0x10080888,0x98088808,0x88081000,0x00001080,0x00000808,0x00800000,0x00100180,0x89899089,
	0x88800000,0x00001100,0x88008880,0x89998900,0x00080000,0x10880800,0x10888008,0x00980810,
	0x81000802,0x12008181,0x89188888,0x99888088,0x01110001,0x00080080,0x89890aa8,0x80080111,
	0x01100100,0x0188880a,0x90900100,0x01000091,0x01200001,0x808900b8,0x01181009,0x08190811,
	0x01180080,0x11808080,0x09888888,0x80001001,0x11202280,0x08919088,0x09099880,0x88888810,
	0x1180089a,0x88800809,0x88898000,0x80889801,0x08991211,0x10101908,0x08081011,0x812109b8,
	0x24132110,0x10889889,0x90208810,0x0abb8823,0x08880899,0xa0909081,0x89000acd,0xffbc8121,
	0x08890088,0x00801010,0x09afffff,0xffdc9088,0x9a080031,0x2001088a,0xffffffff,0xffcba990,
	0x88119221,0x11331acf,0xffffffa9,0x88809109,0x81002246,0x44532000,0x22000018,0x00882010,
	0x23375565,0x45544433,0x11000010,0x10001234,0x54455544,0x32211000,0x09008880,0x10224222,
	0x34112111,0x10821918,0xa9880890,0x12110022,0x00010010,0x00089888,0x08808801,0x08898089,
	0x010a9880,0x0800000a,0xb99a9088,0x89999908,0x99888808,0x00889aba,0xa999a99a,0x89888088,
	0x88000800,0x999aabcc,0xddccbaa9,0x80880080,0x99888980,0x08001111,0x008889aa,0xa9989890,
	0x80111233,0x44323111,0x0088ab99,0x98880134,0x44444432,0x32212180,0x9aa99880,0x02355444,
	0x45434211,0x11100aba,0x98801123,0x34331233,0x21211020,0x089b9988,0x10322231,0x32232120,
	0x1120119b,0x89990188,0x10345732,0x00222121,0x120a99ab,0xbbcbaddc,0xca131222,0x11222389,
	0x9aceffff,0xffffffc2,0x23212011,0x10899bef,0xffffffff,0xffcb9808,0x00010389,0xabefffff,
	0xffff9abb,0x98001110,0x0088abdf,0xffffa812,0x898899a0,0x00111108,0x8aa98124,0x54432008,
	0x0888a002,0x10008025,0x77442212,0x31800903,0x10888988,0x01477452,0x10081009,0x88800810,
	0x10211345,0x33108008,0x00988888,0x98018800,0x13342000,0x20089880,0x90888088,0x88881211,
	0x01800008,0x08888808,0x80880108,0x10000000,0x00888888,0x88880008,0x18888880,0x88080088,
	0x80888080,0x80080998,0x88808088,0x08808888,0x08089889,0x80908880,0x80100888,0x80890080,
	0x80a08189,0x89900888,0x00000008,0x81809880,0x99898880,0x0988a808,0x88088988,0x18088888,
	0x98990800,0x18091008,0x80081189,0x08899899,0x88988100,0x88808901,0x00008899,0x99998988,
	0x98890888,0x10010000,0x98899898,0x08888010,0x01022112,0x10888899,0x80000133,0x45555564,
	0x32211011,0x88000000,0x22455544,0x33220088,0x01000080,0x00012345,0x54322008,0x88080010,
	0x80000011,0x34556411,0x12000881,0x11121000,0x00124454,0x22080180,0x000089a8,0xa0000022,
	0x4443231a,0x99880899,0x80899988,0x00244444,0x12189888,0x89a99999,0x9a980123,0x44230120,
	0x11009899,0x998da9ba,0x01233212,0x02321011,0x98888a88,0xa9cb0122,0x20001001,0x21208899,
	0x9a89a9bb,0x80111110,0x98888110,0x08999abb,0xabbb8aba,0xaabcddea,0x98108990,0x99baa8b9,
	0x8cefffff,0xfdaca000,0x08890120,0x01199dff,0xfffca888,0x81801808,0x12033232,0x8dfffc91,
	0x12032208,0x10210010,0x22418bca,0x93322203,0x02288001,0x11122243,0x89a00332,0x23310321,
	0x08118214,0x55520002,0x21213288,0x80000882,0x02332422,0x13231188,0x898a8998,0x89880013,
	0x34231333,0x31818801,0x08800111,0x10222322,0x12234222,0x12111011,0x10203414,0x21800123,
	0x32222232,0x33312312,0x21119898,0x01112113,0x22102082,0x00888aaa,0xdcb90008,0x18809098,
	0xa9a98b99,0xbaadfdba,0x00088888,0xa0988908,0x809cedff,0xcba90089,0xaa9aba09,0xa9bddcff,
	0xeeebba98,0x0889addb,0xdeddffff,0xffccccba,0x99988088,0x99bbceef,0xfffddccb,0xa9a98000,
	0xabaabbaa,0x9aaa9880,0x008889a9,0xaababbcb,0xa9a99811,0x13112111,0x00899aaa,0xbbbaba98,
	0x01112111,0x11010108,0x89aabbba,0xa9000080,0x01101101,0x1111888a,0xbbba9880,0x0888a888,
	0x00818012,0x8889bbba,0x99008889,0x8a899888,0x90888089,0xbcba9888,0x99a98898,0x99889818,
	0x0888bba9,0x99aaabab,0xba999988,0x98810088,0xbba19889,0xa9abb998,0x80800890,0x2200bb80,
	0x89800889,0xb9801010,0x21823010,0xcb881888,0x8089b980,0x80898881,0x2121ca12,0x10000131,
	0x8a898990,0x80001042,0xb9455564,0x444539a8,0x88001123,0x3232b057,0x77775545,0x30989980,
	0x02332321,0xb0477775,0x42223189,0x90800111,0x2222b824,0x32211222,0x12198000,0x00011010,
	0xc8008800,0x21011201,0x00808808,0x8809b989,0xa8908111,0x02200808,0x00000028,0xba889aaa,
	0xa9998000,0x08888888,0x8019ba12,0x00898999,0x80010000,0x00080809,0xb8119000,0x80010011,
	0x21100008,0x008bb901,0x11112000,0x11010110,0x0880089b,0xb8811110,0x01101102,0x10010088,
	0x89aaa981,0x80000800,0x88001210,0x1808aabb,0xaaa80010,0x00010110,0x10112180,0x8abbbba8,
	0x88998000,0x08800013,0x10889bbb,0xbbaa9988,0x80980881,0x12110099,0xababbbba,0xba988000,
	0x00100000,0x89aababb,0x11111100,0x00808000,0x88888800,0x01011111,0x10089999,0x88008888,
	0x88880001,0x10100888,0x9baa0110,0x88098989,0x80010118,0x999ababb,0x82810018,0x98089881,
	0x100889ac,0xaaaa0811,0x08000880,0x88001100,0x98808cdb,0x98108800,0x80009a80,0x11088089,
	0x88a98880,0x80008088,0x98981188,0x0890089b,0x80100001,0x98811898,0x10882980,0x0989a881,
	0x01010009,0x88891208,0x08800088,0x99021100,0x10800888,0x10118028,0x10108881,0x01080881,
	0x20890012,0x44138009,0x8ca98008,0x8800090a,0x10134402,0x80a9efca,0x99808880,0x009a0882,
	0x2211089b,0xffb98809,0x88201889,0x0ab9999a,0xceffff08,0x00088001,0x08808bdc,0xfffffffe,
	0xb0101000,0x80098a90,0x8ceeffff,0xffb01022,0x2100889a,0x99a09dff,0xfffd9031,0x00431119,
	0x88aa8088,0x8cfffd90,0x18881233,0x21188808,0x00118bdc,0xa9081001,0x22333101,0x88811132,
	0x89b98118,0x02222022,0x23212011,0x33230880,0x12322221,0x01011021,0x11225522,0x01114331,
	0x31100010,0x02123333,0x54221130,0x33320118,0x01011013,0x35444221,0x11113120,0x22020001,
	0x01243332,0x10010110,0x10111201,0x21282111,0x00000001,0x11000000,0x10818808,0x80809888,
	0x00111101,0x10000008,0x98899998,0x99901011,0xa9aaaaa9,0x9988999a,0xb9aaa9a9,0xa9a9aaaa,
	0x99a98008,0x88acaaba,0x9a9999aa,0xaaba99a9,0x90800889,0x98899999,0xa9aaaab9,0xa9999182,
	0x11202001,0x8898999a,0x9aaaa999,0xa8090008,0x80990100,0xa99aaaaa,0x8aba9888,0x80100801,
	0x80809a99,0x99990aa8,0xabba9080,0x8888999a,0x899aaa9a,0xacabbab8,0xa9188999,0xa9080089,
	0xaaabaaba,0xbbba9980,0x09008899,0x928aa988,0xa899a8aa,0x98810989,0x99a88989,0x9889a889,
	0xb9998018,0x888888a0,0x119aa888,0x989a9aaa,0xa899a998,0xa88888ab,0x988888a9,0x89bcaa99,
	0xabb9baaa,0x9bab9100,0x898aaaad,0xcb89aa99,0xb989899a,0x81222a08,0xa9a9ccba,0xaa888112,
	0x10088343,0x3332109a,0xbbba9998,0x00901221,0x04554434,0x42119a99,0x88011123,0x23220466,
	0x66545553,0x21100011,0x10092411,0x03446675,0x66545443,0x22211122,0x24118223,0x33445445,
	0x65644332,0x23321322,0x90032121,0x23334245,0x45534413,0x33218003,0x01011111,0x21224444,
	0x21243321,0xa8010210,0x22122222,0x22223433,0x3318a801,0x01010010,0x00020134,0x45353208,
	0x99801008,0x11000012,0x12223144,0x2308a998,0x80088800,0x90998980,0x0812188a,0xaaa98888,
	0x88890988,0x88901110,0x09aaaaa9,0x89888999,0xa9999989,0x899999aa,0x22222211,0x21111211,
	0x18088801,0x11122222,0x12122222,0x2110899a,0xaa980112,0x32222222,0x12010088,0x999accb9,
	0x80222221,0x21218989,0x8008889b,0xceec9811,0x22221108,0x00800000,0x0899dfff,0xb8012322,
	0x1200899a,0xa880aaaa,0xffffd901,0x22220808,0x08810000,0x1009afff,0xfb803213,0x10809110,
	0x01121089,0x9cfffc81,0x31112909,0x00101233,0x089abaff,0xfe802211,0x28119818,0x8332899a,
	0xacffff90,0x31120999,0xa9888140,0x00088aff,0xffa02210,0xa8989980,0x821089a8,0x18efffa8,
	0x23088810,0x90900111,0x080908af,0xffb02211,0x12220010,0x00011011,0x08bfffb8,0x21108112,
	0x10801088,0x0808008a,0xfeb01108,0x80180880,0x00880818,0x8988ce90,0x209a8880,0x0012811a,
	0x09098a9a,0xbe901088,0x98880809,0x011808a8,0x9a10dd00,0x21009a89,0x81088111,0x8088981a,
	0xfb012100,0x00000889,0x00011001,0x021bca81,0x21010008,0x80808010,0x0101800a,0xa9022111,
	0x10889908,0x08801080,0x188b9881,0x21010888,0x08080908,0x08080a98,0x99012111,0x80818809,
	0x98999888,0xa98a8902,0x21110000,0x88009998,0x89aa0888,0x90022210,0x11081201,0x11888001,
	0x11080022,0x22221108,0x88000811,0x11001800,0x01222222,0x11111111,0x21222322,0x32322222,
}; //first channel is topmost bit

// Layer: L2
// QuantType: 4bitsym
#define L2_active
#define L2_bitperweight 4
#define L2_incoming_weights 16
#define L2_outgoing_weights 16
const uint32_t L2_weights[] = {
	0x58194013,0x11180898,0x90848209,0xcb8010b0,0x1a00900b,0x458080c8,0xc9e00112,0x020b8c30,
	0x7249b188,0x81b1830a,0x1298a5a8,0x0098d81a,0x38ca2893,0x992a2398,0x26d9a182,0xb1900d02,
	0xc1101809,0x2262c301,0xd0110c10,0xa823d119,0x8c801c39,0x88ba0041,0x0a39b210,0xca9002a4,
	0x1ca02803,0x900308e1,0x828310d8,0x19822089,0xe929b10a,0x88c0301c,0x819ac02b,0xaa822829,
}; //first channel is topmost bit

// Layer: L3
// QuantType: 4bitsym
#define L3_active
#define L3_bitperweight 4
#define L3_incoming_weights 16
#define L3_outgoing_weights 10
const uint32_t L3_weights[] = {
	0x89e2bea2,0x99bba399,0x989a1a19,0x1ab4a91a,0x89a98b09,0x239b90b2,0x8a28b200,0x398a089a,
	0x9080a0a9,0xb9108c31,0x3b1a22b0,0xb8ab8019,0xaada3dc2,0xcb989082,0x18a0ba2c,0x12982b9a,
	0x938b8189,0x9a898289,0x0122a08a,0xa9208cab,
}; //first channel is topmost bit

#endif
